<unk>	0
<s>	0
</s>	0
▁the	-3.11435
.	-3.24943
,	-3.30938
▁a	-3.75315
▁and	-3.81445
s	-3.83836
▁of	-3.9202
▁to	-3.9869
'	-4.06094
▁is	-4.2382
▁it	-4.31157
▁in	-4.35987
▁i	-4.39367
▁this	-4.56077
▁that	-4.62035
▁was	-4.98939
t	-5.02919
▁movie	-5.03193
-	-5.06267
▁for	-5.10375
▁with	-5.12579
▁film	-5.17204
▁as	-5.17265
▁but	-5.18312
▁you	-5.33491
▁on	-5.36619
▁	-5.40048
▁"	-5.44113
▁(	-5.46852
▁not	-5.48686
▁are	-5.51012
▁he	-5.54024
▁be	-5.54604
▁have	-5.55852
▁his	-5.56922
▁one	-5.58366
"	-5.68958
▁all	-5.74469
▁they	-5.80104
▁at	-5.80375
▁an	-5.80862
▁by	-5.81222
▁who	-5.82986
▁so	-5.86568
▁like	-5.87853
▁from	-5.90322
)	-5.91757
▁there	-6.02602
▁just	-6.02923
▁out	-6.03681
▁or	-6.04892
▁about	-6.04943
▁her	-6.05167
▁has	-6.08352
▁if	-6.11393
▁some	-6.13117
▁good	-6.15188
▁what	-6.16792
ing	-6.18955
▁can	-6.18991
!	-6.233
the	-6.23377
▁very	-6.24078
▁more	-6.24578
▁when	-6.27899
▁she	-6.3092
▁time	-6.34309
▁up	-6.34852
▁no	-6.35252
▁my	-6.36748
▁would	-6.3706
▁see	-6.39109
▁even	-6.39204
▁really	-6.40464
?	-6.40565
▁me	-6.41387
▁story	-6.42041
i	-6.43674
▁only	-6.44014
▁had	-6.47054
▁their	-6.47591
d	-6.48854
▁were	-6.51269
▁which	-6.52375
▁well	-6.54012
ed	-6.54243
▁we	-6.56092
▁do	-6.61696
▁much	-6.61861
...	-6.62904
▁than	-6.62904
▁bad	-6.62918
▁get	-6.6407
▁-	-6.64247
▁great	-6.64796
▁other	-6.65328
▁will	-6.66201
▁people	-6.66633
▁been	-6.67969
▁don	-6.69419
▁because	-6.70407
▁also	-6.71696
:	-6.72208
▁first	-6.72706
▁into	-6.72913
▁how	-6.73316
▁most	-6.74007
▁him	-6.75086
m	-6.75843
ly	-6.77159
▁make	-6.78924
▁made	-6.79679
▁way	-6.80931
▁could	-6.82738
▁too	-6.85356
▁think	-6.86554
▁then	-6.86571
▁them	-6.87695
▁any	-6.87953
▁watch	-6.9031
▁characters	-6.916
▁after	-6.9181
▁character	-6.9233
▁seen	-6.94127
▁movies	-6.94569
a	-6.95427
▁plot	-6.95482
▁show	-6.97733
▁many	-6.99071
▁acting	-6.99428
▁two	-6.99573
▁know	-6.99695
▁love	-6.9998
▁'	-7.00786
re	-7.01384
▁over	-7.01573
▁being	-7.01778
▁never	-7.02381
▁best	-7.02903
▁little	-7.03702
▁did	-7.04
ve	-7.04676
▁ever	-7.04718
▁life	-7.06007
;	-7.06883
▁where	-7.07085
▁films	-7.0929
y	-7.10347
▁man	-7.10432
▁your	-7.11997
▁better	-7.12247
▁off	-7.12457
).	-7.13373
▁does	-7.13531
▁its	-7.13915
▁end	-7.14181
▁say	-7.16051
▁scene	-7.19055
▁still	-7.19145
▁here	-7.19275
e	-7.19838
▁go	-7.21741
▁these	-7.24507
▁scenes	-7.25786
▁should	-7.26977
▁back	-7.28088
▁why	-7.28538
▁something	-7.28787
▁while	-7.31424
▁thing	-7.3158
▁through	-7.32037
er	-7.32387
▁such	-7.33201
▁watching	-7.3338
in	-7.33515
▁real	-7.35287
),	-7.35397
▁those	-7.36508
▁funny	-7.37668
▁actors	-7.37687
▁didn	-7.38301
▁doesn	-7.3881
/	-7.38843
▁work	-7.40217
▁years	-7.41156
and	-7.41691
▁now	-7.42247
▁lot	-7.42368
▁find	-7.43214
▁look	-7.44785
▁actually	-7.4479
▁before	-7.46692
▁new	-7.47026
▁director	-7.47077
▁old	-7.47149
▁going	-7.47459
▁same	-7.47472
▁nothing	-7.47492
ll	-7.47523
▁though	-7.47636
▁few	-7.47797
▁another	-7.48314
it	-7.48405
▁every	-7.49458
▁part	-7.50081
▁makes	-7.50407
▁cast	-7.51357
▁again	-7.5439
▁want	-7.55252
▁world	-7.5554
▁pretty	-7.55806
▁down	-7.5789
▁quite	-7.58541
▁horror	-7.59217
▁us	-7.59967
▁thought	-7.6013
▁things	-7.61359
▁got	-7.61682
▁young	-7.61685
▁give	-7.61772
▁enough	-7.62949
▁fact	-7.63763
▁long	-7.64076
▁take	-7.64317
▁big	-7.65164
▁around	-7.6519
▁seems	-7.65485
▁music	-7.66998
▁may	-7.67129
▁saw	-7.67571
▁must	-7.68296
▁action	-7.6959
▁own	-7.69681
▁far	-7.69744
▁comedy	-7.70171
▁right	-7.70904
▁however	-7.71009
▁between	-7.71206
▁always	-7.71312
▁come	-7.71957
▁both	-7.71973
▁guy	-7.72277
▁series	-7.7259
▁bit	-7.73023
▁isn	-7.73074
▁role	-7.7309
▁script	-7.73574
▁original	-7.7417
▁interesting	-7.74966
▁whole	-7.75433
▁without	-7.75649
▁&	-7.75772
▁done	-7.75923
▁almost	-7.76296
▁feel	-7.7636
▁least	-7.76424
▁point	-7.76809
▁am	-7.78755
▁gets	-7.7909
▁minutes	-7.7918
▁times	-7.79189
▁might	-7.80823
▁family	-7.81472
▁fun	-7.81969
▁anything	-7.82178
this	-7.82388
▁last	-7.82464
▁kind	-7.83099
▁since	-7.83371
▁performance	-7.83425
▁girl	-7.83437
o	-7.84464
▁tv	-7.84982
▁put	-7.86632
or	-7.87055
▁worst	-7.87178
▁probably	-7.87186
▁anyone	-7.88445
▁sure	-7.89554
▁away	-7.8986
▁hard	-7.90662
▁dvd	-7.90841
▁found	-7.91573
▁rather	-7.92703
▁believe	-7.93475
▁each	-7.94006
▁day	-7.94512
▁ending	-7.95216
r	-7.95228
▁woman	-7.95868
▁making	-7.96787
--	-7.97238
▁yet	-7.97414
▁worth	-7.97659
▁book	-7.98421
▁trying	-8.00716
▁screen	-8.00934
▁main	-8.01121
▁course	-8.01605
▁set	-8.01676
▁place	-8.02075
▁actor	-8.0214
▁watched	-8.02405
▁our	-8.02749
▁goes	-8.03017
▁reason	-8.03034
▁having	-8.03227
▁money	-8.03504
▁played	-8.03662
▁job	-8.03813
▁sense	-8.03878
n	-8.03888
▁different	-8.04015
▁everything	-8.0433
▁especially	-8.05605
▁looking	-8.05672
▁wasn	-8.05698
▁play	-8.06005
▁someone	-8.06068
▁comes	-8.06598
▁effects	-8.06913
▁everyone	-8.07058
▁three	-8.07179
▁high	-8.07808
▁let	-8.08086
▁true	-8.08133
▁maybe	-8.08968
▁black	-8.09756
▁once	-8.10104
▁looks	-8.10343
c	-8.10986
▁shows	-8.11072
▁fan	-8.11204
▁plays	-8.11375
▁special	-8.11438
▁together	-8.11469
▁seem	-8.11564
▁version	-8.11727
▁seeing	-8.11939
(	-8.12037
▁war	-8.12282
▁audience	-8.12992
▁instead	-8.1313
▁half	-8.13385
on	-8.13643
▁said	-8.1368
▁beautiful	-8.13901
▁night	-8.13932
▁excellent	-8.14183
▁idea	-8.14197
▁although	-8.14514
▁during	-8.14589
al	-8.14635
es	-8.14646
",	-8.14682
▁american	-8.14688
".	-8.14823
as	-8.14897
▁left	-8.15612
▁mind	-8.16481
▁later	-8.16485
▁short	-8.16609
▁himself	-8.17417
▁year	-8.17805
▁shot	-8.1839
▁else	-8.18475
▁house	-8.18944
but	-8.19712
▁nice	-8.19892
▁2	-8.1992
▁father	-8.20477
▁read	-8.20996
▁takes	-8.21187
▁enjoy	-8.21461
▁wife	-8.22152
▁home	-8.22301
▁10	-8.22771
▁john	-8.22944
▁used	-8.22967
▁low	-8.23614
▁recommend	-8.2371
▁re	-8.2393
▁completely	-8.23944
▁stupid	-8.23962
▁poor	-8.2405
man	-8.24452
▁simply	-8.24471
▁school	-8.24499
▁death	-8.24685
▁second	-8.25198
▁boring	-8.25669
▁star	-8.25881
▁need	-8.26198
▁kids	-8.26232
▁line	-8.26254
▁un	-8.26316
▁b	-8.26697
▁help	-8.26962
."	-8.27254
▁couple	-8.27467
▁friends	-8.28189
▁men	-8.28288
▁hollywood	-8.28371
▁classic	-8.28611
▁try	-8.28704
▁camera	-8.2897
▁wrong	-8.29145
▁production	-8.29375
▁either	-8.295
▁use	-8.29677
▁along	-8.29882
▁rest	-8.30307
▁start	-8.30539
▁less	-8.31306
▁awful	-8.31624
if	-8.31915
▁understand	-8.3193
▁performances	-8.32308
▁dead	-8.32321
▁until	-8.32507
▁tell	-8.32701
▁women	-8.32753
▁--	-8.32809
▁remember	-8.33146
▁truly	-8.33292
▁came	-8.33294
▁full	-8.33606
▁top	-8.33769
▁video	-8.33774
▁mean	-8.33808
▁budget	-8.34037
▁sex	-8.3447
▁person	-8.34732
▁terrible	-8.3474
▁next	-8.3505
▁episode	-8.35118
▁given	-8.35616
▁won	-8.36206
to	-8.37301
k	-8.37398
▁getting	-8.3759
▁wonderful	-8.37955
▁keep	-8.38281
g	-8.38592
▁head	-8.39091
▁definitely	-8.39386
▁piece	-8.39556
▁laugh	-8.40294
▁small	-8.40415
▁boy	-8.40517
▁dialogue	-8.40697
l	-8.41197
th	-8.41232
▁playing	-8.41265
▁face	-8.41434
▁name	-8.41467
▁live	-8.41522
▁mother	-8.42216
▁human	-8.4248
▁car	-8.42925
▁couldn	-8.43069
se	-8.4317
▁itself	-8.43403
▁under	-8.4362
▁doing	-8.44066
▁early	-8.44307
▁perfect	-8.44338
▁moments	-8.44452
▁absolutely	-8.4458
▁sort	-8.4497
▁entertaining	-8.45139
▁children	-8.45345
▁picture	-8.46193
▁hope	-8.46371
▁lines	-8.46388
▁went	-8.46533
▁loved	-8.46554
▁case	-8.46582
▁waste	-8.4685
▁cinema	-8.46973
▁liked	-8.47237
▁worse	-8.48
▁friend	-8.48159
▁often	-8.48219
▁sound	-8.48461
▁perhaps	-8.4873
▁style	-8.4881
▁felt	-8.49385
▁drama	-8.49955
p	-8.50096
▁stars	-8.50401
▁certainly	-8.50624
▁title	-8.50784
▁game	-8.51221
▁3	-8.51497
▁supposed	-8.51789
▁gives	-8.51943
▁entire	-8.52035
ness	-8.52432
▁problem	-8.52851
▁dark	-8.53499
▁become	-8.53929
▁care	-8.54088
▁beginning	-8.54157
▁direction	-8.54231
▁written	-8.54337
▁guess	-8.54854
le	-8.55519
▁humor	-8.55563
▁white	-8.55773
▁mr	-8.56107
▁guys	-8.56226
▁totally	-8.56377
▁several	-8.57009
▁example	-8.57388
▁lead	-8.57609
▁fans	-8.57683
▁wanted	-8.5797
▁turn	-8.58079
▁others	-8.58741
▁amazing	-8.59053
▁seemed	-8.59344
▁finally	-8.5944
▁based	-8.59546
▁heart	-8.59571
▁lost	-8.5985
▁flick	-8.59916
▁horrible	-8.59942
so	-8.60006
▁killer	-8.60412
▁already	-8.60718
▁fine	-8.60896
▁side	-8.60959
▁lives	-8.61426
an	-8.61543
▁quality	-8.61587
▁evil	-8.61994
▁final	-8.62095
▁against	-8.62272
▁throughout	-8.62341
▁called	-8.62592
▁today	-8.62849
▁past	-8.63254
▁enjoyed	-8.63442
▁town	-8.63889
there	-8.63898
▁matter	-8.63929
▁writing	-8.64055
▁1	-8.64253
▁child	-8.64368
▁history	-8.64589
▁de	-8.64698
▁able	-8.64735
up	-8.64852
▁expect	-8.65106
▁close	-8.65259
▁son	-8.65615
▁kid	-8.65637
▁art	-8.65656
▁stuff	-8.65728
▁run	-8.65732
ers	-8.66214
▁god	-8.66282
▁days	-8.66401
▁kill	-8.66873
▁gave	-8.67119
▁favorite	-8.67199
▁becomes	-8.67892
▁tries	-8.67951
▁etc	-8.68615
▁yes	-8.69247
▁genre	-8.69382
▁hand	-8.69839
▁myself	-8.69869
▁despite	-8.70056
▁act	-8.70474
▁viewer	-8.70763
▁turns	-8.71208
▁brilliant	-8.71489
▁slow	-8.71574
he	-8.727
▁group	-8.72908
▁blood	-8.73403
▁city	-8.73755
▁oh	-8.73835
▁overall	-8.73843
▁unfortunately	-8.7387
▁michael	-8.73927
▁late	-8.73965
b	-8.74022
▁sometimes	-8.74107
▁actress	-8.74153
▁voice	-8.74194
▁girls	-8.74426
▁highly	-8.74486
▁behind	-8.74622
en	-8.74851
▁wants	-8.74938
▁crap	-8.75083
▁eyes	-8.7557
▁heard	-8.75704
▁hour	-8.75775
▁parts	-8.75925
▁killed	-8.7613
▁decent	-8.7614
h	-8.76202
▁works	-8.76323
▁thinking	-8.76586
▁took	-8.76857
▁daughter	-8.76908
f	-8.77106
▁themselves	-8.77195
▁chance	-8.77293
▁wonder	-8.7732
▁fight	-8.77337
▁lack	-8.7781
!!	-8.78018
▁starts	-8.78026
▁obviously	-8.78094
▁hit	-8.78348
▁self	-8.78375
▁looked	-8.7859
▁soon	-8.79044
▁cool	-8.79088
▁hell	-8.80171
▁feeling	-8.80246
▁experience	-8.80253
▁stop	-8.80371
▁type	-8.80454
▁happen	-8.80533
▁interest	-8.80538
▁hilarious	-8.80851
▁involved	-8.8098
▁o	-8.81014
▁wouldn	-8.8102
▁song	-8.81069
▁score	-8.81387
▁directed	-8.81445
▁murder	-8.81445
no	-8.81509
▁strong	-8.81736
one	-8.81775
▁extremely	-8.82038
what	-8.82054
▁told	-8.82177
▁happens	-8.82398
▁ago	-8.82408
for	-8.82418
▁violence	-8.82578
▁sad	-8.83109
▁complete	-8.83387
▁coming	-8.83393
▁cut	-8.83491
▁moment	-8.83537
fi	-8.83762
▁leave	-8.83878
▁brother	-8.8397
▁attempt	-8.84182
▁writer	-8.84212
▁bring	-8.84222
▁stories	-8.84374
*	-8.85229
▁police	-8.85347
▁simple	-8.85568
▁talent	-8.85722
▁happened	-8.85765
▁huge	-8.85869
▁english	-8.8588
▁5	-8.85943
▁co	-8.85971
▁wish	-8.86077
▁cannot	-8.86144
▁anyway	-8.86701
▁ten	-8.87081
▁please	-8.87297
▁age	-8.87451
▁cinematography	-8.87476
▁released	-8.87521
▁gore	-8.87662
at	-8.87698
▁husband	-8.87741
▁living	-8.87759
▁obvious	-8.87791
▁opinion	-8.88595
▁shown	-8.88887
▁except	-8.8926
▁4	-8.89269
▁ok	-8.89475
like	-8.89478
all	-8.8961
▁light	-8.89643
u	-8.89978
▁jokes	-8.90164
▁save	-8.90277
▁career	-8.90287
▁roles	-8.90405
▁order	-8.90413
▁word	-8.90415
▁serious	-8.90472
▁yourself	-8.90769
who	-8.9077
▁cheap	-8.90848
▁exactly	-8.9114
▁number	-8.91374
▁relationship	-8.9146
▁usually	-8.91511
not	-8.91673
▁taken	-8.91685
▁disappointed	-8.91933
▁call	-8.91936
▁ridiculous	-8.91983
▁across	-8.91988
▁annoying	-8.91994
▁c	-8.92354
▁seriously	-8.9242
▁particularly	-8.92481
▁view	-8.92619
▁documentary	-8.92654
▁middle	-8.92817
▁alone	-8.93012
▁hours	-8.93016
▁jack	-8.93414
▁hero	-8.93481
▁major	-8.93534
▁david	-8.93676
▁known	-8.93737
▁saying	-8.93741
▁usual	-8.94057
▁due	-8.94137
▁says	-8.94196
▁none	-8.94376
▁body	-8.94571
▁attention	-8.94631
you	-8.94648
▁started	-8.95094
▁running	-8.95377
▁reality	-8.95704
which	-8.95924
▁power	-8.96206
▁20	-8.96283
▁change	-8.96368
▁female	-8.96391
▁scary	-8.96509
able	-8.96815
▁knew	-8.96846
▁somewhat	-8.96909
▁among	-8.97054
is	-8.97104
▁team	-8.9712
▁possible	-8.97153
ic	-8.97278
▁miss	-8.97639
▁james	-8.97742
▁dialog	-8.97816
▁novel	-8.97884
▁d	-8.97975
▁strange	-8.9801
▁non	-8.98242
▁robert	-8.98256
▁single	-8.98268
▁rating	-8.98293
▁taking	-8.98301
▁silly	-8.98365
ie	-8.98425
my	-8.98759
ther	-8.98939
▁shots	-8.99137
▁musical	-8.99194
▁room	-8.99331
▁local	-8.994
▁predictable	-8.99508
▁beyond	-8.99709
!!!	-8.99945
▁important	-8.99981
▁level	-9.00184
▁television	-9.00375
▁country	-9.00383
▁turned	-9.00419
▁opening	-9.00541
▁talking	-9.00681
▁near	-9.00847
▁modern	-9.01085
▁hate	-9.01395
▁la	-9.01554
▁soundtrack	-9.01638
▁subject	-9.01848
▁aren	-9.01861
el	-9.0221
▁mostly	-9.02299
▁four	-9.02348
▁enjoyable	-9.02652
▁french	-9.0271
▁review	-9.02846
▁basically	-9.02849
▁space	-9.02881
▁british	-9.02933
▁entertainment	-9.02934
▁buy	-9.03246
▁dr	-9.03315
▁happy	-9.0336
▁clich	-9.03456
▁comic	-9.03461
of	-9.03517
▁episodes	-9.03667
!"	-9.03679
▁e	-9.03913
▁bunch	-9.03923
▁dull	-9.04039
▁words	-9.04672
▁surprised	-9.0485
▁george	-9.05078
▁romantic	-9.05146
▁haven	-9.05188
▁stand	-9.052
▁songs	-9.05216
▁rock	-9.05324
▁sequel	-9.05339
▁future	-9.05343
▁add	-9.05493
▁die	-9.05554
▁earth	-9.0559
out	-9.05607
▁fast	-9.0561
▁similar	-9.0563
▁events	-9.05763
▁clearly	-9.05967
▁king	-9.06016
▁including	-9.06155
▁fall	-9.06952
▁eye	-9.07341
▁storyline	-9.0737
▁talk	-9.07395
▁apparently	-9.07786
▁whe	-9.0815
▁problems	-9.08502
▁upon	-9.08702
▁straight	-9.08787
▁doubt	-9.08929
▁mention	-9.09125
w	-9.09173
▁thriller	-9.09228
▁clear	-9.0949
▁theater	-9.097
▁theme	-9.09744
▁deal	-9.09864
▁rent	-9.09906
▁f	-9.10454
▁easily	-9.10572
▁monster	-9.10609
▁above	-9.1068
▁ends	-9.10891
▁g	-9.1099
▁oscar	-9.11131
▁moving	-9.11157
la	-9.11243
▁falls	-9.11291
▁suspense	-9.11654
▁tried	-9.1166
▁sequence	-9.11671
▁parents	-9.11872
▁certain	-9.1198
▁message	-9.12245
▁kept	-9.12299
▁supporting	-9.12409
▁giving	-9.12418
▁finds	-9.1244
▁dog	-9.12519
▁comments	-9.12616
▁fantastic	-9.1296
that	-9.12977
▁release	-9.13103
▁viewing	-9.13261
▁period	-9.13518
▁five	-9.13583
▁material	-9.13591
▁tale	-9.13607
3	-9.13745
▁feature	-9.13884
▁effort	-9.13903
▁sets	-9.14029
▁animation	-9.14069
▁follow	-9.14236
▁sit	-9.1427
▁lady	-9.14324
▁check	-9.14324
▁sister	-9.14507
▁lame	-9.14522
▁editing	-9.14544
▁realistic	-9.14768
▁forget	-9.14804
▁showing	-9.14843
do	-9.14845
▁hear	-9.14865
ish	-9.14924
▁tells	-9.15012
▁easy	-9.15085
▁gay	-9.15875
▁class	-9.16193
▁premise	-9.16196
▁filmed	-9.16349
▁avoid	-9.16474
▁t	-9.16542
▁imagine	-9.17092
▁believable	-9.17231
be	-9.17329
▁needs	-9.17389
▁open	-9.1743
▁greatest	-9.17435
▁fire	-9.17626
▁viewers	-9.17719
▁decided	-9.17798
▁nearly	-9.1782
▁typical	-9.17959
▁19	-9.18375
▁working	-9.18458
▁using	-9.18728
▁move	-9.18815
▁stay	-9.18837
▁reviews	-9.19028
▁gone	-9.19087
well	-9.19287
▁*	-9.1931
▁form	-9.19344
v	-9.19498
▁doctor	-9.1966
▁appears	-9.19672
▁famous	-9.1968
▁weak	-9.19688
▁dance	-9.19767
▁...	-9.19777
▁crime	-9.19782
0	-9.1986
▁learn	-9.20012
less	-9.20144
▁brought	-9.20252
ion	-9.20582
▁season	-9.20598
▁within	-9.20691
▁wait	-9.2099
▁named	-9.21091
▁shame	-9.21126
de	-9.21221
▁elements	-9.21374
▁sorry	-9.21623
▁okay	-9.21633
▁imdb	-9.21698
▁spend	-9.21726
▁comment	-9.21935
▁poorly	-9.22227
▁york	-9.22287
▁red	-9.22388
▁knows	-9.2239
▁hot	-9.22436
▁box	-9.22546
▁air	-9.22596
▁actual	-9.22654
▁sci	-9.22976
▁general	-9.23039
▁weird	-9.23174
▁dumb	-9.23204
▁mystery	-9.23412
▁lots	-9.23428
▁cop	-9.23603
▁peter	-9.24248
z	-9.2425
▁killing	-9.2443
1	-9.2448
▁average	-9.24507
▁romance	-9.24628
▁figure	-9.24672
▁herself	-9.24752
▁begins	-9.24849
▁p	-9.24972
▁male	-9.25015
▁write	-9.25039
▁street	-9.25089
▁truth	-9.25285
▁sequences	-9.25318
▁points	-9.25474
▁leads	-9.25587
▁became	-9.25597
x	-9.25669
▁atmosphere	-9.25972
▁cheesy	-9.25981
▁expected	-9.26111
▁footage	-9.26224
2	-9.26228
▁particular	-9.26234
▁somehow	-9.26241
▁copy	-9.2632
▁crew	-9.26494
▁america	-9.26616
▁begin	-9.26738
▁dream	-9.26846
▁deep	-9.26848
▁water	-9.26893
▁pay	-9.26896
▁surprise	-9.26982
▁difficult	-9.27015
na	-9.27144
▁forward	-9.2718
▁richard	-9.2743
we	-9.276
▁minute	-9.27717
▁memorable	-9.27869
▁paul	-9.28117
?"	-9.28134
▁indeed	-9.28139
▁superb	-9.28247
▁nor	-9.28433
▁means	-9.28647
by	-9.28688
▁reading	-9.28741
▁question	-9.28982
▁admit	-9.29016
▁credits	-9.29101
▁masterpiece	-9.29221
ra	-9.29354
ch	-9.29408
▁gun	-9.29431
▁lee	-9.29543
▁needed	-9.29556
▁cover	-9.29682
▁feels	-9.29977
▁break	-9.30224
▁third	-9.30234
▁free	-9.30324
▁present	-9.30404
▁interested	-9.3056
▁result	-9.30581
with	-9.30754
▁mess	-9.30804
ist	-9.30938
▁disney	-9.30999
▁situation	-9.3148
time	-9.3175
▁development	-9.31781
ha	-9.31841
▁whatever	-9.31873
▁island	-9.31904
▁stage	-9.3207
▁personal	-9.3217
▁previous	-9.3219
ian	-9.32195
▁screenplay	-9.32313
▁total	-9.32315
▁effect	-9.32435
▁boys	-9.3247
▁u	-9.32474
▁features	-9.32482
▁acted	-9.32514
▁realize	-9.32577
▁leaves	-9.32584
da	-9.32688
▁society	-9.32713
▁sexual	-9.32886
▁girlfriend	-9.33021
▁joke	-9.3307
▁laughs	-9.33149
▁eventually	-9.33267
▁bill	-9.33322
▁cat	-9.33412
▁nature	-9.3349
▁quickly	-9.33714
▁badly	-9.3374
▁crazy	-9.33805
▁background	-9.33812
▁emotional	-9.33821
▁otherwise	-9.33835
▁plus	-9.33965
▁70	-9.33998
!)	-9.3423
don	-9.34274
ma	-9.34338
▁meet	-9.3447
son	-9.34554
▁western	-9.34653
▁flat	-9.34815
ation	-9.35002
▁front	-9.35006
▁inside	-9.35015
▁creepy	-9.35022
▁possibly	-9.35031
▁meets	-9.35248
▁agree	-9.3528
▁unique	-9.35308
▁setting	-9.3538
il	-9.35404
ity	-9.35425
▁van	-9.35569
▁twist	-9.35672
▁incredibly	-9.35714
▁italian	-9.35714
▁ask	-9.35715
▁list	-9.35867
▁plenty	-9.35988
▁baby	-9.36013
▁cartoon	-9.36184
mo	-9.36425
▁ex	-9.36445
te	-9.36469
even	-9.36667
▁worked	-9.36856
▁ways	-9.37298
▁japanese	-9.37382
▁directing	-9.37504
▁rich	-9.37621
go	-9.37682
ling	-9.37704
ment	-9.37727
us	-9.37914
▁mad	-9.37958
▁beauty	-9.38087
▁fairly	-9.38165
▁forced	-9.38202
ta	-9.38307
▁odd	-9.38396
▁wasted	-9.38477
▁perfectly	-9.38648
▁appear	-9.38702
▁recently	-9.38876
▁powerful	-9.39133
▁business	-9.39188
▁plain	-9.39532
▁battle	-9.39652
▁mark	-9.39653
▁train	-9.39768
▁expecting	-9.39783
▁laughing	-9.39904
▁hands	-9.40006
▁keeps	-9.4009
un	-9.40178
▁villain	-9.40256
▁pure	-9.40445
▁cute	-9.40551
▁portrayed	-9.40571
▁spent	-9.40649
")	-9.40658
ies	-9.40667
▁bar	-9.40769
ri	-9.4091
▁8	-9.41556
▁earlier	-9.41671
▁k	-9.42172
▁unless	-9.42214
▁leading	-9.42292
▁towards	-9.42423
▁note	-9.4246
▁fighting	-9.42825
▁following	-9.42837
▁talented	-9.43119
▁writers	-9.43454
▁public	-9.43566
▁store	-9.43726
ce	-9.43899
▁deserves	-9.43909
?)	-9.43978
▁brings	-9.44042
▁secret	-9.44062
▁pre	-9.44101
▁sub	-9.44124
▁fails	-9.44159
▁whom	-9.44175
▁dramatic	-9.44246
▁large	-9.44329
▁meant	-9.44338
▁pace	-9.44343
movie	-9.44464
▁incredible	-9.44492
▁sick	-9.44517
▁various	-9.44794
▁success	-9.44856
▁party	-9.44885
▁30	-9.44932
ro	-9.454
▁zombie	-9.45461
▁era	-9.45659
▁super	-9.45813
▁brain	-9.45839
▁create	-9.46029
▁appreciate	-9.46165
▁sweet	-9.46182
▁ended	-9.46274
▁potential	-9.46362
▁visual	-9.46371
ism	-9.46581
co	-9.46589
▁manages	-9.46617
▁sounds	-9.46635
▁older	-9.46642
▁amusing	-9.46785
▁language	-9.47104
▁7	-9.4717
▁value	-9.47603
▁post	-9.47708
▁hardly	-9.47792
▁missing	-9.48205
▁camp	-9.48256
▁apart	-9.48292
▁rate	-9.48299
▁german	-9.48319
▁hold	-9.48365
▁clever	-9.48374
▁reasons	-9.48554
▁gang	-9.48677
▁remake	-9.48703
▁speak	-9.4879
▁tension	-9.48816
▁bored	-9.48864
▁casting	-9.4902
▁credit	-9.49062
ter	-9.49107
est	-9.49121
▁project	-9.49185
▁familiar	-9.49276
▁fake	-9.49328
▁telling	-9.49495
ia	-9.49569
▁nudity	-9.49608
▁road	-9.49643
▁tom	-9.49748
▁j	-9.5
▁trash	-9.5004
▁company	-9.50078
▁l	-9.50277
▁members	-9.50447
▁pointless	-9.50464
▁cold	-9.50468
▁escape	-9.50509
▁band	-9.50526
ty	-9.50699
▁political	-9.50792
▁channel	-9.50979
▁created	-9.51031
▁caught	-9.51032
▁directors	-9.51061
▁outside	-9.51127
▁waiting	-9.5119
land	-9.51201
▁science	-9.51222
▁william	-9.51528
▁scott	-9.51556
▁considering	-9.51564
▁anti	-9.51612
▁common	-9.51677
▁dancing	-9.5187
▁return	-9.51982
▁match	-9.51993
▁tough	-9.52065
▁unlike	-9.52303
▁fear	-9.5242
▁wrote	-9.52525
▁ben	-9.52746
▁solid	-9.52829
▁convincing	-9.52876
▁control	-9.52986
▁positive	-9.53195
ar	-9.53238
▁trip	-9.53261
▁humour	-9.53311
▁trouble	-9.53319
▁fantasy	-9.53497
▁produced	-9.5359
▁awesome	-9.53651
▁further	-9.53804
▁15	-9.53892
▁filmmakers	-9.53982
▁win	-9.54148
▁portrayal	-9.54156
▁hair	-9.54206
▁christmas	-9.54324
▁9	-9.54341
▁!	-9.54566
▁bizarre	-9.54641
▁amount	-9.54663
▁mentioned	-9.5471
▁decide	-9.54878
▁master	-9.55078
▁fit	-9.55093
▁college	-9.55483
▁joe	-9.55524
▁violent	-9.55541
▁married	-9.5566
▁disturbing	-9.55662
▁missed	-9.55731
▁biggest	-9.5581
▁attempts	-9.55811
ur	-9.55998
▁studio	-9.56063
com	-9.56188
▁concept	-9.5637
▁accent	-9.56377
▁r	-9.56438
▁conclusion	-9.56502
▁century	-9.5651
▁died	-9.56624
▁appeal	-9.56629
▁bother	-9.5663
▁park	-9.56631
▁pick	-9.5678
▁office	-9.56858
▁recommended	-9.56887
▁state	-9.57137
▁decides	-9.57144
▁recent	-9.57403
▁drug	-9.57498
▁garbage	-9.57857
▁al	-9.57885
▁sadly	-9.57969
▁slightly	-9.58064
▁spirit	-9.58172
▁consider	-9.58188
▁fair	-9.58202
▁exciting	-9.58212
▁intelligent	-9.58281
▁former	-9.58412
old	-9.58543
▁popular	-9.58553
▁pathetic	-9.58588
▁cause	-9.58744
oh	-9.58829
▁choice	-9.58836
▁bo	-9.58924
good	-9.59143
▁stick	-9.59221
▁glad	-9.59244
▁social	-9.59342
ting	-9.59536
▁compared	-9.59567
▁bought	-9.59594
bo	-9.59598
ine	-9.59799
off	-9.59883
▁west	-9.59942
▁follows	-9.5999
▁walk	-9.60022
▁mood	-9.60049
▁ideas	-9.60178
▁moves	-9.60193
▁filled	-9.60248
▁edge	-9.60302
ry	-9.60509
▁failed	-9.60732
▁longer	-9.60762
▁neither	-9.60841
she	-9.61025
some	-9.6114
▁brothers	-9.61197
▁successful	-9.61253
▁producers	-9.61281
▁sam	-9.61413
▁depth	-9.61554
▁touch	-9.61782
▁taste	-9.61828
▁meaning	-9.62009
▁shooting	-9.62088
▁alive	-9.62134
ne	-9.62193
▁genius	-9.62424
▁prison	-9.62569
▁respect	-9.62876
▁excuse	-9.62997
▁impressive	-9.6323
▁week	-9.63326
▁focus	-9.63358
▁chemistry	-9.63527
▁sea	-9.63607
▁force	-9.63636
▁club	-9.63734
ized	-9.63806
▁younger	-9.63835
5	-9.63849
▁entirely	-9.63876
▁explain	-9.63959
▁images	-9.64084
▁situations	-9.64298
▁basic	-9.64461
they	-9.6447
▁wild	-9.64493
▁adult	-9.64721
▁impression	-9.64803
▁cult	-9.64842
▁somewhere	-9.64952
▁ultimately	-9.65075
▁adventure	-9.65126
▁track	-9.65294
▁considered	-9.65335
▁chase	-9.65371
▁festival	-9.65373
▁fiction	-9.65375
▁questions	-9.65483
▁values	-9.65516
▁honest	-9.65549
▁suddenly	-9.65602
▁weren	-9.65617
▁silent	-9.65759
ted	-9.65792
▁jane	-9.6582
....	-9.6588
▁con	-9.65889
▁frank	-9.6607
▁jim	-9.66084
▁impossible	-9.66116
▁singing	-9.66235
although	-9.6643
▁barely	-9.66521
▁planet	-9.66611
▁slasher	-9.66899
▁effective	-9.66926
▁changed	-9.66997
▁aspect	-9.67175
▁culture	-9.6724
when	-9.67263
ive	-9.67305
▁law	-9.6735
per	-9.675
▁bed	-9.67563
▁vampire	-9.67594
▁dad	-9.67628
▁uses	-9.67645
▁yeah	-9.67705
▁smart	-9.6778
▁charming	-9.67812
▁h	-9.6791
▁rare	-9.67947
▁involving	-9.68011
▁personally	-9.6802
▁tone	-9.68133
▁computer	-9.6815
▁green	-9.68273
▁80'	-9.68341
▁available	-9.68391
▁giant	-9.68788
▁pass	-9.69095
▁ride	-9.69147
▁showed	-9.69197
j	-9.69383
lo	-9.69422
▁remind	-9.69445
making	-9.695
▁revenge	-9.69757
▁shoot	-9.69767
▁scenery	-9.69815
▁normal	-9.69878
▁appearance	-9.69919
▁("	-9.69929
▁90	-9.69936
▁innocent	-9.70138
▁animated	-9.70149
▁south	-9.70155
▁ho	-9.70167
▁alien	-9.70415
▁surprisingly	-9.70424
▁beautifully	-9.70472
▁journey	-9.70722
▁sitting	-9.70732
▁added	-9.70745
▁leaving	-9.70917
▁jones	-9.70918
▁purpose	-9.7099
▁kills	-9.71103
▁door	-9.71184
▁immediately	-9.71313
▁smith	-9.71347
▁disappointing	-9.71368
just	-9.71437
▁starring	-9.71571
▁twists	-9.71598
▁catch	-9.71641
▁boyfriend	-9.71732
ge	-9.71746
ally	-9.71755
ton	-9.71781
▁sexy	-9.71845
ley	-9.71907
let	-9.72339
▁victim	-9.7234
▁standard	-9.72366
▁ray	-9.72521
ant	-9.72561
▁le	-9.7303
▁loud	-9.73297
▁comedies	-9.73308
▁soul	-9.73328
▁100	-9.73398
▁ma	-9.73408
▁nowhere	-9.73419
▁ghost	-9.73607
▁managed	-9.73609
▁terrific	-9.73688
▁photography	-9.7371
▁finish	-9.73711
▁everybody	-9.73733
▁fell	-9.73759
▁terms	-9.73888
▁support	-9.73965
me	-9.74076
▁disappointment	-9.74096
▁aside	-9.74223
▁drive	-9.74288
4	-9.74337
▁charm	-9.74354
▁honestly	-9.74458
▁plan	-9.74622
▁costumes	-9.74658
▁rip	-9.74729
▁ability	-9.7482
▁motion	-9.7482
▁land	-9.74869
▁remains	-9.7487
▁likely	-9.75079
▁unbelievable	-9.75112
▁books	-9.75151
▁ed	-9.75213
▁w	-9.75218
▁london	-9.75334
▁naked	-9.75354
8	-9.75504
▁issues	-9.75567
▁makers	-9.75638
▁chris	-9.75649
how	-9.75735
▁soldiers	-9.75835
▁subtle	-9.75941
ous	-9.76211
▁outstanding	-9.76375
▁pain	-9.76378
▁date	-9.76395
▁lovely	-9.76503
▁wood	-9.7651
▁army	-9.76598
▁thrown	-9.76794
▁hoping	-9.76814
▁nobody	-9.76833
▁content	-9.76837
men	-9.76904
▁throw	-9.76922
▁complex	-9.76959
▁color	-9.77002
▁mary	-9.77082
▁magic	-9.7718
▁blue	-9.77201
▁bond	-9.77251
▁utterly	-9.77466
▁natural	-9.77523
rs	-9.77579
▁hospital	-9.77605
▁literally	-9.7765
▁manner	-9.77787
▁pictures	-9.77809
▁government	-9.77819
▁laughable	-9.77859
▁opera	-9.77969
now	-9.77982
ul	-9.78052
▁constantly	-9.78094
▁painful	-9.7812
budget	-9.782
▁touching	-9.78261
▁adaptation	-9.78413
▁happening	-9.78563
star	-9.78721
▁spoilers	-9.78816
▁cinematic	-9.78873
▁minor	-9.78902
ner	-9.78941
▁expectations	-9.78997
director	-9.79053
▁hurt	-9.79062
▁se	-9.79218
▁mistake	-9.79246
▁10.	-9.79308
▁award	-9.79422
▁emotions	-9.79426
▁narrative	-9.79505
▁detective	-9.79522
▁heavy	-9.79542
▁bottom	-9.79582
▁cry	-9.79639
▁details	-9.79706
▁presence	-9.7972
um	-9.79772
▁teen	-9.79811
▁generally	-9.79921
▁collection	-9.79937
▁ship	-9.79986
▁summer	-9.79989
▁beat	-9.79996
▁suppose	-9.79997
▁grace	-9.80069
▁thanks	-9.80156
▁charles	-9.80196
▁sent	-9.80263
▁detail	-9.80453
▁jean	-9.80513
▁building	-9.80546
▁climax	-9.80573
▁runs	-9.80645
▁stunning	-9.80682
over	-9.80695
▁contains	-9.80706
▁fresh	-9.80776
▁martin	-9.80788
▁confusing	-9.80797
am	-9.80858
▁mysterious	-9.81133
▁per	-9.81309
▁exception	-9.81468
▁intended	-9.81478
▁tired	-9.81483
▁notice	-9.81674
▁military	-9.81684
▁slowly	-9.81793
▁ha	-9.8192
9	-9.82241
▁serial	-9.82546
▁changes	-9.82777
▁negative	-9.82988
▁student	-9.83082
▁laughed	-9.83143
▁stands	-9.83225
▁sight	-9.83283
▁phone	-9.83286
▁students	-9.83361
con	-9.83534
▁80	-9.83539
▁emotion	-9.83637
▁audiences	-9.8364
▁bruce	-9.837
▁thank	-9.8376
▁fascinating	-9.83878
▁zombies	-9.83905
▁boss	-9.83906
see	-9.84045
▁gem	-9.84208
▁key	-9.8426
em	-9.84332
▁double	-9.84355
▁historical	-9.84461
▁opportunity	-9.8455
▁walking	-9.8461
▁mom	-9.84627
▁fashion	-9.84629
▁grade	-9.84658
▁producer	-9.84749
▁ground	-9.84765
▁presented	-9.84798
▁knowing	-9.84957
ba	-9.85094
▁indian	-9.85294
▁million	-9.85387
▁spot	-9.85589
▁funniest	-9.8569
▁agent	-9.85694
▁shock	-9.85814
▁acts	-9.85874
▁station	-9.85926
▁offer	-9.86044
▁40	-9.86138
▁disaster	-9.86154
▁themes	-9.86305
▁n	-9.86396
▁fully	-9.86418
▁forever	-9.86436
▁torture	-9.86455
▁suggest	-9.86577
▁mid	-9.86585
▁impact	-9.86628
life	-9.86865
bad	-9.86868
▁equally	-9.86879
▁creative	-9.8708
▁race	-9.87185
▁surely	-9.8719
▁pull	-9.87328
▁feelings	-9.87337
▁brief	-9.87424
▁holes	-9.87447
house	-9.87472
▁ahead	-9.87589
her	-9.87646
▁x	-9.87666
▁central	-9.87758
▁random	-9.87869
▁direct	-9.87887
▁system	-9.87993
▁quick	-9.88029
▁wow	-9.88092
▁pleasure	-9.88226
▁include	-9.88251
▁charlie	-9.88263
▁justice	-9.88289
▁sat	-9.88314
▁names	-9.88418
▁dreams	-9.88438
▁answer	-9.88498
▁aspects	-9.88532
▁attack	-9.88546
▁judge	-9.8855
▁wondering	-9.88604
▁lover	-9.88624
▁extra	-9.88628
▁gold	-9.88737
▁treat	-9.88773
▁marriage	-9.8893
▁brown	-9.88986
▁paris	-9.89177
▁intense	-9.89287
▁porn	-9.89293
▁fox	-9.89412
▁harry	-9.89432
▁difference	-9.89606
▁imagination	-9.89631
▁location	-9.89637
▁stone	-9.89725
▁en	-9.89783
▁pieces	-9.89812
▁image	-9.89868
▁pop	-9.90071
▁extreme	-9.90273
▁fellow	-9.90341
▁tony	-9.90476
▁folks	-9.90564
▁church	-9.90589
▁rated	-9.90619
▁listen	-9.90717
▁mine	-9.90784
▁moral	-9.90813
▁anymore	-9.90877
▁reminded	-9.91005
▁process	-9.91057
▁appeared	-9.91059
▁twice	-9.91068
▁steve	-9.91094
▁thus	-9.91103
▁mainly	-9.91136
▁lighting	-9.91141
▁six	-9.91304
▁scientist	-9.9133
▁step	-9.91365
after	-9.91456
▁compelling	-9.91548
di	-9.91553
▁batman	-9.91618
▁mix	-9.91745
▁accident	-9.91766
▁likable	-9.91791
▁paid	-9.91807
vi	-9.91997
▁count	-9.92032
▁rented	-9.92108
▁animals	-9.92221
▁industry	-9.9227
▁finding	-9.92303
▁russian	-9.92335
▁sleep	-9.92386
▁share	-9.92426
▁trailer	-9.92577
age	-9.92669
ey	-9.92762
▁christopher	-9.92822
ring	-9.92943
▁wall	-9.93006
▁developed	-9.93145
▁picked	-9.93203
▁mediocre	-9.93248
ful	-9.93364
▁fat	-9.93371
▁noir	-9.9342
line	-9.93476
▁hitchcock	-9.93492
▁suicide	-9.93499
▁dies	-9.93527
year	-9.93528
▁impressed	-9.93537
▁gorgeous	-9.93733
li	-9.9381
▁machine	-9.93818
dy	-9.93872
▁born	-9.94069
ga	-9.9408
▁price	-9.94211
▁stuck	-9.9423
▁attractive	-9.9424
▁putting	-9.94327
▁50	-9.94404
▁independent	-9.94485
▁drawn	-9.94561
der	-9.94645
▁flaws	-9.94689
▁ready	-9.94696
▁supposedly	-9.94731
▁lived	-9.9475
▁relationships	-9.94771
▁theatre	-9.94838
▁actresses	-9.9488
▁passion	-9.94998
▁damn	-9.95142
▁wind	-9.95211
▁angry	-9.95224
▁forgotten	-9.95247
▁affair	-9.95325
▁critics	-9.95349
▁adults	-9.95383
7	-9.95639
▁information	-9.95728
▁latter	-9.95743
▁soldier	-9.95888
▁places	-9.95982
▁horse	-9.96025
▁mouth	-9.9618
▁besides	-9.96184
▁addition	-9.96195
▁lord	-9.96301
▁delivers	-9.96343
▁loose	-9.96522
▁cross	-9.96705
▁deliver	-9.96713
▁favourite	-9.96745
▁flicks	-9.96773
▁soap	-9.96845
▁element	-9.96878
▁lacks	-9.9692
▁childhood	-9.96998
▁apartment	-9.97005
▁wooden	-9.97019
▁turning	-9.97049
▁cops	-9.97075
why	-9.97079
ke	-9.97088
▁led	-9.97133
▁tend	-9.97161
▁trust	-9.97175
▁victims	-9.97191
▁ms	-9.97293
▁allowed	-9.97378
▁bob	-9.97394
▁professional	-9.97425
▁martial	-9.97519
ler	-9.97617
ber	-9.97656
▁m	-9.9771
american	-9.97834
▁dis	-9.97928
▁board	-9.97954
▁join	-9.97973
▁search	-9.98151
▁teacher	-9.98212
▁billy	-9.98225
▁hotel	-9.98301
▁hasn	-9.98346
▁captain	-9.98567
▁drugs	-9.98592
les	-9.98595
overall	-9.98614
▁becoming	-9.98717
▁member	-9.98722
▁lose	-9.98768
▁helped	-9.98814
▁epic	-9.98822
▁seemingly	-9.98824
▁approach	-9.98929
▁radio	-9.98953
▁compare	-9.98984
▁falling	-9.99046
▁shouldn	-9.99047
▁christian	-9.99052
▁confused	-9.99078
▁stock	-9.99086
▁describe	-9.99091
▁plane	-9.99114
▁design	-9.99185
▁absolute	-9.99197
▁tragic	-9.99221
▁whatsoever	-9.99311
▁mc	-9.99349
▁st	-9.99435
▁joy	-9.99522
▁kelly	-9.99611
▁area	-9.99738
▁afraid	-9.99847
▁commentary	-10.0011
▁mo	-10.0022
▁worthy	-10.0035
▁seven	-10.0035
top	-10.0041
&	-10.0043
▁proves	-10.0045
▁jackson	-10.0065
▁ball	-10.0067
▁deserve	-10.0071
▁roll	-10.0115
▁stewart	-10.0118
▁grand	-10.0135
▁thoroughly	-10.0143
▁nasty	-10.0144
▁rain	-10.0145
▁ring	-10.0147
▁jason	-10.0147
▁jr	-10.0148
▁merely	-10.0152
▁desert	-10.0154
▁blame	-10.0155
also	-10.016
▁teenage	-10.0168
▁vs	-10.0174
▁moved	-10.0177
▁shocking	-10.0185
though	-10.0188
▁faces	-10.0192
▁explanation	-10.0196
mer	-10.02
po	-10.0208
▁adds	-10.0223
▁12	-10.0228
▁struggle	-10.0234
▁da	-10.0242
▁memory	-10.0249
▁unknown	-10.025
▁bright	-10.0252
▁cgi	-10.0256
▁speaking	-10.0266
▁thin	-10.027
▁shop	-10.0277
▁carry	-10.0287
▁filming	-10.0288
ir	-10.03
▁provides	-10.03
▁clothes	-10.0304
▁comedic	-10.0305
▁dan	-10.0309
▁soft	-10.033
yes	-10.0332
▁par	-10.0335
▁redeeming	-10.0336
▁tim	-10.0336
▁ryan	-10.0336
▁followed	-10.0338
▁hall	-10.0358
▁watchable	-10.0361
▁travel	-10.0383
▁criminal	-10.0391
▁allen	-10.0404
▁provide	-10.0404
▁standards	-10.0406
▁superior	-10.0411
▁realized	-10.0425
▁absurd	-10.0426
film	-10.0432
▁smile	-10.0444
▁animal	-10.0449
▁offers	-10.0459
▁friendship	-10.0468
ka	-10.0471
especially	-10.0477
▁wanting	-10.0495
▁helps	-10.0495
▁ugly	-10.0497
▁relate	-10.0507
▁physical	-10.051
▁blind	-10.051
▁therefore	-10.0524
▁anybody	-10.0552
▁pro	-10.0571
▁bank	-10.0572
▁intriguing	-10.0578
▁personality	-10.0579
▁build	-10.0591
played	-10.0602
▁floor	-10.0606
▁food	-10.0609
▁sucks	-10.0611
▁moon	-10.0614
▁tears	-10.0618
▁boat	-10.0618
▁lies	-10.0637
▁returns	-10.0639
▁dirty	-10.0642
▁ice	-10.0659
.....	-10.0661
▁energy	-10.0663
▁1970	-10.0664
▁:	-10.0666
▁continue	-10.0684
▁allow	-10.0684
▁page	-10.0685
▁arts	-10.069
▁religious	-10.0692
▁onto	-10.0693
▁gags	-10.0698
way	-10.0721
che	-10.0726
from	-10.073
▁games	-10.0739
▁tragedy	-10.0746
▁conflict	-10.0771
▁dying	-10.0774
▁spoiler	-10.0781
ize	-10.0782
▁president	-10.0802
▁henry	-10.0808
mar	-10.0808
▁suit	-10.0818
▁kick	-10.0818
▁ya	-10.082
ca	-10.0821
▁eat	-10.0825
▁suspect	-10.0831
▁twenty	-10.0832
▁speed	-10.0835
▁howard	-10.0843
▁rarely	-10.0848
▁vhs	-10.0858
▁asked	-10.0861
▁eddie	-10.0867
▁states	-10.0875
▁skip	-10.0875
▁hated	-10.0889
▁held	-10.0889
▁uncle	-10.089
▁pacing	-10.0917
▁author	-10.0919
▁zero	-10.0922
▁news	-10.0945
▁filmmaker	-10.0951
▁generation	-10.0965
▁morning	-10.0975
▁1950	-10.0976
▁jerry	-10.0978
▁inspired	-10.0985
▁flying	-10.0992
▁wide	-10.0994
▁woods	-10.0999
▁necessary	-10.1004
▁hidden	-10.1006
▁ba	-10.1008
▁williams	-10.1009
▁nick	-10.101
▁recall	-10.1024
▁murders	-10.1025
▁intelligence	-10.1033
▁anywhere	-10.1042
▁mike	-10.1043
▁rubbish	-10.1062
▁locations	-10.1064
▁accept	-10.1074
▁wayne	-10.1085
▁witch	-10.1086
▁officer	-10.1087
▁deeply	-10.1088
▁noticed	-10.1112
▁pilot	-10.1113
▁destroy	-10.1116
▁behavior	-10.112
▁memories	-10.112
▁sharp	-10.1122
▁target	-10.1122
▁artistic	-10.1125
▁hey	-10.1127
▁fate	-10.1133
▁stephen	-10.1156
▁kevin	-10.1156
▁wise	-10.1161
▁wearing	-10.1167
▁apparent	-10.1168
▁sign	-10.117
▁months	-10.117
▁limited	-10.1183
▁length	-10.1184
▁heaven	-10.1185
▁understanding	-10.1185
▁creature	-10.1207
ni	-10.1216
however	-10.1223
then	-10.1228
▁surprising	-10.1229
▁dangerous	-10.1229
▁artist	-10.1233
▁record	-10.1234
▁anne	-10.1235
▁?	-10.1238
▁opposite	-10.1239
▁introduced	-10.1244
▁issue	-10.1245
▁tape	-10.1247
▁numbers	-10.125
▁willing	-10.1252
▁holds	-10.126
▁queen	-10.1267
▁priest	-10.1268
▁moore	-10.1269
▁wonderfully	-10.1275
▁bloody	-10.1275
▁mission	-10.1284
▁devil	-10.1285
▁unusual	-10.1318
▁13	-10.1326
ex	-10.1333
▁bland	-10.1333
va	-10.1346
▁nicely	-10.1347
▁foreign	-10.1361
▁v	-10.1372
▁z	-10.1385
red	-10.1388
▁lynch	-10.1388
sh	-10.1392
▁danny	-10.1394
▁clean	-10.14
▁captured	-10.1402
▁discover	-10.1403
▁scared	-10.1407
▁accurate	-10.1407
▁fault	-10.1415
▁ran	-10.1417
▁community	-10.1418
▁owner	-10.1431
ran	-10.1433
led	-10.1446
▁favor	-10.1447
▁remarkable	-10.1449
▁cable	-10.1454
▁includes	-10.1455
▁national	-10.1463
ent	-10.1464
▁chan	-10.1469
▁leader	-10.1476
▁engaging	-10.1479
war	-10.148
▁gotten	-10.1484
ary	-10.1484
ah	-10.1496
▁window	-10.1508
▁comparison	-10.1508
nd	-10.151
▁european	-10.1514
▁brutal	-10.1529
▁began	-10.1534
▁mini	-10.1539
▁commercial	-10.1541
id	-10.1545
▁somebody	-10.1546
▁heroes	-10.1556
▁finished	-10.1562
can	-10.1566
▁site	-10.1566
▁creating	-10.1571
▁ford	-10.1573
▁hang	-10.1575
▁thomas	-10.1577
▁18	-10.1586
▁crowd	-10.159
▁explained	-10.1595
▁loving	-10.1598
▁perspective	-10.1602
▁whilst	-10.1605
▁references	-10.1611
??	-10.1613
▁mar	-10.162
▁lacking	-10.1622
ho	-10.1629
▁manage	-10.163
▁na	-10.1631
▁chinese	-10.1633
▁vi	-10.1645
▁warning	-10.1652
▁technical	-10.1652
▁seconds	-10.1659
hi	-10.1662
▁dealing	-10.1663
▁davis	-10.1664
▁buddy	-10.1669
▁utter	-10.1677
▁spectacular	-10.1683
▁unrealistic	-10.1695
▁drunk	-10.1696
▁field	-10.1698
our	-10.1699
▁formula	-10.1704
▁vision	-10.1708
▁normally	-10.1716
▁pair	-10.1723
▁player	-10.1725
▁kinda	-10.1732
▁ka	-10.174
▁sucked	-10.1768
▁wit	-10.1769
▁rescue	-10.1773
▁youth	-10.1787
▁academy	-10.1788
▁singer	-10.1799
▁debut	-10.1801
▁genuine	-10.1808
while	-10.1816
▁cash	-10.1821
▁seagal	-10.1823
▁sing	-10.1845
looking	-10.1845
▁alan	-10.1847
lu	-10.1851
▁terribly	-10.1851
gi	-10.1853
ated	-10.1854
▁fail	-10.1855
▁range	-10.1857
lin	-10.186
▁partner	-10.1865
▁magnificent	-10.1873
▁current	-10.1875
▁unnecessary	-10.1883
▁responsible	-10.1884
▁taylor	-10.1884
▁network	-10.1885
▁fu	-10.1891
▁brian	-10.1892
▁fame	-10.1897
▁knowledge	-10.1914
▁rape	-10.1915
cy	-10.1927
▁starting	-10.1928
▁river	-10.1928
▁bigger	-10.1951
▁program	-10.1969
▁cost	-10.1981
▁hunter	-10.1998
▁1980	-10.2012
▁virtual	-10.2012
▁humorous	-10.2014
▁consist	-10.2016
head	-10.2023
▁frankly	-10.2032
▁desire	-10.2038
▁learned	-10.205
▁desperate	-10.2066
▁advice	-10.2075
▁crappy	-10.2076
▁driving	-10.2078
▁jump	-10.2083
▁deserved	-10.2086
▁wars	-10.2092
▁constant	-10.2096
▁dreadful	-10.2096
▁murdered	-10.2101
▁capture	-10.2106
▁faith	-10.2107
▁shakespeare	-10.2108
▁seat	-10.2109
▁douglas	-10.2109
▁humanity	-10.2113
▁study	-10.2123
ru	-10.2125
▁france	-10.2127
▁mental	-10.2128
▁mixed	-10.2129
▁teenagers	-10.2134
▁witty	-10.2141
▁sean	-10.2158
▁below	-10.2161
▁contain	-10.2172
▁wedding	-10.2176
▁gross	-10.2178
▁round	-10.218
ad	-10.2198
where	-10.2199
▁failure	-10.2205
▁results	-10.2217
▁robin	-10.2219
▁warm	-10.222
▁asian	-10.2228
▁vote	-10.2238
▁england	-10.2238
▁numerous	-10.2238
▁satire	-10.2238
▁regret	-10.2238
▁international	-10.2239
▁ta	-10.2255
▁spoil	-10.2263
▁****	-10.2266
▁truck	-10.2272
▁nonsense	-10.2275
▁terror	-10.2276
▁regular	-10.2296
▁survive	-10.2304
▁americans	-10.2305
▁thinks	-10.2306
very	-10.2313
▁players	-10.2316
work	-10.232
▁connection	-10.232
▁individual	-10.2321
▁monsters	-10.2336
▁powers	-10.234
▁fill	-10.2342
▁grow	-10.2352
▁skills	-10.2353
tic	-10.2356
▁lets	-10.2359
▁test	-10.2361
▁loves	-10.2362
▁village	-10.2374
▁max	-10.238
▁rob	-10.2385
**	-10.2397
ee	-10.24
▁luck	-10.2407
▁arthur	-10.2409
▁table	-10.2409
▁finest	-10.2411
▁golden	-10.2411
▁dressed	-10.242
▁loss	-10.2429
ger	-10.2436
▁met	-10.2437
▁unfunny	-10.2438
▁african	-10.2439
▁johnny	-10.2445
▁saving	-10.2445
▁rental	-10.2446
▁po	-10.2454
▁growing	-10.246
▁paper	-10.2463
▁asks	-10.2464
ier	-10.2469
▁joan	-10.2478
▁castle	-10.2486
▁pulled	-10.2491
▁included	-10.2492
first	-10.2493
▁sheer	-10.2501
▁context	-10.2504
▁parody	-10.2506
▁actions	-10.2508
▁originally	-10.2513
▁heroine	-10.2514
▁inter	-10.2526
▁quiet	-10.2526
▁jo	-10.2527
▁reaction	-10.2528
▁empty	-10.2538
▁lousy	-10.2538
▁private	-10.2541
▁fly	-10.2541
▁australian	-10.2545
!!!!	-10.2545
▁keeping	-10.2569
▁model	-10.2573
▁regard	-10.2574
ac	-10.2576
▁prove	-10.258
▁media	-10.2581
▁lesson	-10.2581
▁trek	-10.2581
▁skin	-10.2586
▁screaming	-10.2592
▁talents	-10.2593
▁hunt	-10.2602
▁remembered	-10.2603
ence	-10.2605
▁ordinary	-10.261
▁according	-10.2612
▁sun	-10.2633
▁irritating	-10.264
▁grew	-10.264
▁whenever	-10.2654
▁/	-10.2657
▁cameo	-10.2658
▁contrast	-10.266
▁sky	-10.2664
▁decision	-10.2665
▁gangster	-10.2667
ok	-10.2672
▁disgusting	-10.268
▁ill	-10.2685
▁efforts	-10.2685
▁steven	-10.2688
▁unexpected	-10.2697
▁psychological	-10.2699
▁drag	-10.2705
▁scream	-10.2708
▁tedious	-10.2709
0'	-10.2714
▁reviewers	-10.2729
▁delightful	-10.2733
▁visit	-10.2733
▁saved	-10.2735
▁print	-10.2736
boy	-10.2744
▁featuring	-10.2745
end	-10.2746
▁alex	-10.2749
▁occasionally	-10.2752
▁exist	-10.276
▁highlight	-10.2762
▁treated	-10.2764
▁protagonist	-10.2771
▁sheriff	-10.2778
▁spanish	-10.278
▁event	-10.2784
▁rose	-10.2784
ol	-10.2786
▁concerned	-10.2789
ating	-10.2803
);	-10.2808
▁bomb	-10.2816
▁deals	-10.2817
▁essentially	-10.2818
▁winning	-10.2825
▁guns	-10.2832
▁finale	-10.2833
▁develop	-10.2841
▁prefer	-10.2846
▁gonna	-10.2847
▁dick	-10.2853
im	-10.2856
▁adam	-10.2861
▁practical	-10.2867
▁11	-10.2867
▁angel	-10.2867
▁awkward	-10.287
▁beach	-10.2871
▁corny	-10.2886
▁winner	-10.2888
▁vampires	-10.2893
▁sell	-10.2894
▁blonde	-10.2901
▁display	-10.2906
▁higher	-10.2909
▁portray	-10.2911
▁sympathetic	-10.2917
▁aware	-10.2919
▁jennifer	-10.2924
▁attitude	-10.2949
▁football	-10.2953
▁graphic	-10.2956
ud	-10.2958
▁feet	-10.2962
ard	-10.2962
▁lower	-10.2964
day	-10.2964
▁hill	-10.2966
▁pet	-10.2967
his	-10.297
???	-10.2971
pa	-10.2973
▁curious	-10.2976
▁bear	-10.2982
▁hat	-10.2985
!).	-10.2989
▁miles	-10.2989
▁steal	-10.2996
▁genuinely	-10.3001
▁gary	-10.3001
▁gory	-10.3003
lan	-10.3007
▁naturally	-10.3012
▁frame	-10.3014
▁fights	-10.3018
▁hopes	-10.3022
▁contrived	-10.3024
ze	-10.303
▁revealed	-10.3035
▁realism	-10.3043
▁convince	-10.3044
back	-10.3046
▁lovers	-10.3047
screen	-10.3049
down	-10.305
▁forces	-10.3054
▁stereotypes	-10.3055
▁europe	-10.3057
▁shallow	-10.3059
▁east	-10.3071
▁meeting	-10.3077
▁correct	-10.3083
▁villains	-10.309
▁send	-10.3094
▁sake	-10.3095
▁crash	-10.3096
▁calls	-10.3097
ten	-10.3103
▁lucky	-10.3109
▁toward	-10.3111
▁dry	-10.3111
▁described	-10.3115
▁bits	-10.3116
io	-10.3123
▁visuals	-10.313
▁choose	-10.313
▁horribly	-10.313
made	-10.3131
▁ruin	-10.3149
▁walked	-10.316
▁excited	-10.3167
pro	-10.3175
▁matt	-10.3175
ably	-10.3177
▁flashbacks	-10.3187
▁assume	-10.3188
▁discovered	-10.319
▁insane	-10.3192
min	-10.3194
▁du	-10.3197
▁existence	-10.3204
▁grown	-10.3211
▁reporter	-10.3211
▁su	-10.3216
▁foot	-10.3216
▁hits	-10.3225
▁dated	-10.3232
ate	-10.3236
▁instance	-10.324
▁ladies	-10.3241
car	-10.3245
mon	-10.3258
▁delivered	-10.3259
▁flesh	-10.3263
▁involves	-10.3267
▁gene	-10.3269
▁combination	-10.3275
▁degree	-10.3275
▁chick	-10.3284
bb	-10.3304
▁evidence	-10.3312
▁department	-10.3312
▁amateurish	-10.3312
▁keaton	-10.3314
▁heck	-10.3316
▁product	-10.3317
▁legend	-10.3319
▁received	-10.332
▁laughter	-10.3323
▁endless	-10.3325
▁mel	-10.3325
▁ko	-10.3329
king	-10.333
▁scare	-10.3339
▁decade	-10.3353
***	-10.3364
▁hadn	-10.3366
▁heads	-10.3369
▁recognize	-10.3371
▁provided	-10.3378
▁pretentious	-10.3384
▁logic	-10.339
▁remain	-10.3393
▁driver	-10.3399
▁bag	-10.3409
▁research	-10.3417
rd	-10.3418
▁reach	-10.3423
▁candy	-10.3426
▁gain	-10.3426
▁eric	-10.3428
▁broken	-10.3429
▁lewis	-10.3429
▁cuts	-10.343
▁teenager	-10.3438
ris	-10.3442
▁brilliantly	-10.3443
▁hal	-10.3452
▁underrated	-10.3461
▁costume	-10.3469
?!	-10.3471
▁ann	-10.3473
▁praise	-10.3483
pe	-10.3485
▁portrays	-10.35
▁levels	-10.3502
▁hide	-10.3505
▁overly	-10.3519
▁embarrassing	-10.3525
▁host	-10.3536
▁werewolf	-10.3539
ious	-10.3546
▁rise	-10.3559
john	-10.3563
▁fish	-10.3564
▁visually	-10.3564
▁ancient	-10.3571
▁gordon	-10.3573
▁texas	-10.3573
▁market	-10.3575
▁abuse	-10.3578
▁edited	-10.3582
▁costs	-10.3597
maybe	-10.3599
▁proper	-10.36
▁scale	-10.3603
▁center	-10.3606
▁cage	-10.3608
▁japan	-10.3608
▁executed	-10.3612
ana	-10.362
ster	-10.3642
▁treatment	-10.3647
▁turkey	-10.3648
▁larry	-10.3649
▁handsome	-10.365
▁native	-10.3658
▁pity	-10.3665
▁ne	-10.3669
▁harris	-10.3681
▁bat	-10.3684
▁kong	-10.3685
du	-10.3697
kin	-10.3713
▁ultimate	-10.3714
mi	-10.3715
▁strength	-10.3718
▁chief	-10.3722
chi	-10.3726
▁jeff	-10.3731
▁classics	-10.3732
▁capable	-10.3735
▁strongly	-10.3738
▁breaks	-10.3738
▁factor	-10.3747
▁spoof	-10.3755
watch	-10.3756
▁harsh	-10.3761
▁chaplin	-10.3762
▁psycho	-10.3766
▁robot	-10.3767
▁account	-10.3773
bi	-10.3779
▁depressing	-10.3798
art	-10.38
▁russell	-10.38
▁freedom	-10.3801
▁beast	-10.381
▁prime	-10.3813
ial	-10.3815
▁roy	-10.3818
mp	-10.3818
▁influence	-10.3822
▁families	-10.3837
▁eating	-10.3839
▁bus	-10.3847
▁service	-10.3854
ions	-10.3855
▁lake	-10.3859
▁continues	-10.3862
▁fred	-10.3863
▁universal	-10.3866
▁bodies	-10.3876
▁demon	-10.3876
▁relief	-10.3877
▁wolf	-10.3879
par	-10.3883
▁li	-10.3887
▁grave	-10.3891
▁pile	-10.3893
▁cartoons	-10.3894
▁makeup	-10.3906
▁sum	-10.3907
▁north	-10.3911
ja	-10.3926
▁junk	-10.394
▁sword	-10.395
▁enemy	-10.3956
▁julie	-10.3957
▁barbara	-10.396
▁standing	-10.3964
▁dean	-10.398
▁pleasant	-10.3981
▁qualities	-10.3992
▁jungle	-10.3993
▁section	-10.3996
▁anthony	-10.3996
▁surreal	-10.3997
▁handle	-10.4001
▁entertained	-10.4004
▁nightmare	-10.4019
▁substance	-10.4032
▁stopped	-10.4032
▁rules	-10.4056
ities	-10.4057
▁cruel	-10.4069
▁louis	-10.4071
▁naive	-10.4071
▁gratuitous	-10.4072
▁canadian	-10.4073
▁professor	-10.4073
pi	-10.4074
▁blow	-10.4075
▁offensive	-10.4076
▁humans	-10.4088
qu	-10.4089
▁root	-10.4093
▁amateur	-10.4093
iness	-10.4104
▁uk	-10.4106
ut	-10.4109
▁washington	-10.4111
▁promising	-10.4112
ron	-10.4118
▁reviewer	-10.4119
▁dude	-10.4124
▁vehicle	-10.4133
▁traditional	-10.415
▁simon	-10.4151
▁statement	-10.4152
▁morgan	-10.4153
▁discovers	-10.4154
▁theaters	-10.4157
▁lesbian	-10.4176
ping	-10.4184
▁asleep	-10.4189
▁dubbed	-10.4195
▁asking	-10.4197
▁promise	-10.4202
▁mask	-10.4203
▁subtitles	-10.4211
ph	-10.4218
▁expression	-10.4224
▁emotionally	-10.4225
too	-10.4226
▁anime	-10.423
▁proud	-10.423
▁hitler	-10.4235
ance	-10.4235
▁tiny	-10.4237
▁haunting	-10.4237
▁unable	-10.4241
bu	-10.4258
another	-10.4267
▁universe	-10.427
▁twisted	-10.4272
▁steals	-10.4272
▁produce	-10.4276
▁appealing	-10.4278
▁creatures	-10.428
▁charge	-10.4283
▁express	-10.4291
ko	-10.4296
▁drop	-10.4302
▁cell	-10.4308
▁bbc	-10.431
▁blockbuster	-10.4312
▁sequels	-10.4313
▁cares	-10.4322
▁streets	-10.4322
▁draw	-10.4327
▁murderer	-10.4335
▁viewed	-10.4335
▁segment	-10.4338
▁arm	-10.4354
▁enter	-10.4354
▁dollars	-10.4355
▁sisters	-10.436
▁parker	-10.4371
▁flow	-10.4372
▁mountain	-10.4381
▁insult	-10.4385
▁technology	-10.4392
▁task	-10.4392
▁teens	-10.4392
▁exploitation	-10.4396
▁awards	-10.4398
ass	-10.4398
▁jackie	-10.4403
ck	-10.4417
▁routine	-10.4421
▁source	-10.4421
▁ignore	-10.4424
▁grant	-10.4425
horror	-10.4428
great	-10.4428
▁satisfying	-10.444
▁sin	-10.4445
▁encounter	-10.4449
▁proved	-10.4451
tv	-10.4452
▁prince	-10.4455
▁shocked	-10.4458
▁experienced	-10.447
▁sports	-10.4473
▁exact	-10.4474
▁refreshing	-10.4475
▁murphy	-10.4475
▁nominated	-10.4479
▁chosen	-10.448
▁suck	-10.4483
▁semi	-10.4486
▁fool	-10.449
▁germany	-10.4495
▁portraying	-10.4497
get	-10.4504
▁theatrical	-10.4504
▁circumstances	-10.4508
wa	-10.4511
▁till	-10.4514
▁slapstick	-10.4515
▁wear	-10.4517
▁majority	-10.4518
▁joseph	-10.452
▁core	-10.452
▁hopefully	-10.4524
▁appropriate	-10.4547
▁risk	-10.4548
▁caused	-10.4551
▁interview	-10.4554
▁continuity	-10.4557
os	-10.4558
▁built	-10.4559
▁danger	-10.4561
▁pat	-10.4565
more	-10.4567
▁loses	-10.457
▁bore	-10.4571
▁idiot	-10.4576
▁shadow	-10.4587
▁eight	-10.4593
▁contemporary	-10.4597
▁types	-10.4597
▁aliens	-10.4598
▁em	-10.4603
▁sc	-10.4605
ble	-10.4606
▁kim	-10.4614
▁mrs	-10.4616
love	-10.4618
▁safe	-10.463
▁surface	-10.464
▁creates	-10.464
▁base	-10.464
▁jesus	-10.4645
▁ages	-10.466
▁evening	-10.4667
▁nurse	-10.4672
▁tight	-10.4673
▁roger	-10.468
▁kung	-10.4682
▁wake	-10.4683
▁25	-10.4699
▁execution	-10.4723
▁mis	-10.4723
▁figured	-10.4735
jo	-10.4741
▁clue	-10.4747
▁talks	-10.4753
▁passed	-10.4755
▁hearing	-10.4758
▁sa	-10.4759
▁speech	-10.4761
▁forest	-10.4765
▁cheese	-10.4765
▁nevertheless	-10.4769
ise	-10.4774
▁meanwhile	-10.4778
▁darkness	-10.4782
▁path	-10.4792
▁angles	-10.4803
▁gas	-10.4804
▁rough	-10.4806
▁religion	-10.4807
▁reputation	-10.4807
▁mexican	-10.4809
▁position	-10.4811
▁saturday	-10.4814
▁alice	-10.4821
▁ruined	-10.4824
ky	-10.4825
▁suffering	-10.4832
▁patient	-10.4848
▁conversation	-10.4848
▁cars	-10.4849
▁prior	-10.485
▁glimpse	-10.485
▁anderson	-10.4851
▁suspenseful	-10.4854
▁worthwhile	-10.4855
plot	-10.4858
▁walks	-10.4858
▁san	-10.4869
▁painfully	-10.4873
ya	-10.4878
▁unfortunate	-10.4881
▁weeks	-10.4885
▁identity	-10.4893
▁urban	-10.4897
gg	-10.4899
▁touches	-10.49
▁knock	-10.4923
▁sudden	-10.4924
▁fare	-10.4928
▁spin	-10.4928
▁lie	-10.4935
▁massive	-10.4936
▁vietnam	-10.4938
most	-10.4952
▁term	-10.4954
▁believed	-10.4961
▁structure	-10.4964
field	-10.4975
▁min	-10.4976
▁category	-10.4979
▁edward	-10.4979
▁criticism	-10.4979
▁mature	-10.4983
▁guilty	-10.4984
▁brave	-10.5002
▁peace	-10.5004
▁allows	-10.5007
▁studios	-10.5009
▁kate	-10.5016
op	-10.5017
▁extraordinary	-10.5022
▁broadway	-10.5022
▁weekend	-10.5023
▁melodrama	-10.5023
▁southern	-10.5024
▁depicted	-10.5026
▁sensitive	-10.5028
▁albert	-10.5028
▁latest	-10.503
ver	-10.5038
au	-10.5043
▁unlikely	-10.5053
▁largely	-10.5055
ag	-10.5065
▁atrocious	-10.5065
▁treasure	-10.5065
▁court	-10.5067
rate	-10.5072
cha	-10.5072
▁extras	-10.5073
▁jimmy	-10.5073
▁johnson	-10.5075
▁erotic	-10.5075
▁halloween	-10.5075
nt	-10.5077
▁featured	-10.5082
▁training	-10.5084
side	-10.5092
▁anna	-10.5101
▁sympathy	-10.511
▁california	-10.511
▁vacation	-10.5111
▁supernatural	-10.5111
▁propaganda	-10.5111
▁walter	-10.5127
▁claim	-10.5129
fu	-10.5129
▁handled	-10.5133
▁opens	-10.5136
▁paced	-10.5139
▁stereotypical	-10.5155
▁fulci	-10.5155
▁dozen	-10.5165
▁reveal	-10.5167
▁irish	-10.5169
▁hip	-10.5173
take	-10.5173
▁concern	-10.5188
▁jail	-10.5199
▁china	-10.5203
▁belief	-10.5204
▁mob	-10.5223
▁tree	-10.5223
▁accents	-10.5226
▁lo	-10.523
▁lawyer	-10.5242
▁stolen	-10.5244
▁cutting	-10.525
▁suffer	-10.5258
▁dogs	-10.5271
▁previously	-10.528
▁teeth	-10.5286
▁committed	-10.5288
▁mickey	-10.5291
▁obsessed	-10.5293
▁deadly	-10.5301
▁losing	-10.5302
▁forgot	-10.5303
cing	-10.5303
▁lifetime	-10.5315
▁screening	-10.5318
▁smoke	-10.5323
written	-10.5328
▁crying	-10.5329
▁remotely	-10.534
▁hanging	-10.536
action	-10.5362
▁lu	-10.5363
▁hood	-10.5367
▁fits	-10.5369
▁insight	-10.5378
▁inner	-10.5378
look	-10.5381
▁flight	-10.5383
real	-10.5408
▁drink	-10.541
▁seek	-10.5411
▁welcome	-10.5412
▁renting	-10.5417
▁chose	-10.5417
ps	-10.542
▁carpenter	-10.542
▁stomach	-10.542
▁assistant	-10.5422
▁creation	-10.5423
ned	-10.5426
▁witness	-10.5435
10	-10.5438
mm	-10.5454
▁cr	-10.5459
▁wilson	-10.5466
▁14	-10.5473
▁learns	-10.5474
▁united	-10.5476
▁el	-10.5477
▁calling	-10.548
▁dig	-10.5483
▁stan	-10.5484
▁guard	-10.5485
▁ra	-10.5488
▁surround	-10.549
tion	-10.5493
▁bothered	-10.5506
ney	-10.5508
▁variety	-10.5511
including	-10.5511
▁accidentally	-10.5514
▁warned	-10.5525
grade	-10.5546
oo	-10.5553
▁concert	-10.5557
▁strip	-10.5557
▁coach	-10.5558
here	-10.5559
▁blown	-10.5564
bar	-10.5565
▁rival	-10.5569
▁veteran	-10.5569
ging	-10.5577
▁code	-10.5583
▁voices	-10.559
▁dare	-10.5592
▁rolling	-10.5592
▁amazingly	-10.5593
istic	-10.5595
▁santa	-10.5599
▁protect	-10.5602
ite	-10.5602
nic	-10.5608
▁abandoned	-10.561
▁chuck	-10.5615
▁raw	-10.5618
▁marry	-10.5629
▁inept	-10.5633
▁fi	-10.5635
▁description	-10.5649
▁obnoxious	-10.5649
▁frightening	-10.5651
▁gritty	-10.5651
▁tradition	-10.5652
▁mst	-10.5661
▁presents	-10.5667
▁di	-10.5669
▁mindless	-10.5671
▁plans	-10.5673
▁shut	-10.5673
▁sh	-10.5675
▁paying	-10.5677
▁speaks	-10.568
▁ca	-10.5689
tu	-10.5694
▁narration	-10.5695
▁grim	-10.5696
▁buying	-10.5698
▁security	-10.5698
▁cowboy	-10.5698
▁bull	-10.5698
only	-10.5704
▁format	-10.5711
▁scenario	-10.5711
ak	-10.5713
still	-10.5713
light	-10.5718
▁campy	-10.5719
▁anger	-10.5723
▁shape	-10.5726
▁tu	-10.5729
▁separate	-10.573
▁pitch	-10.573
▁tour	-10.5732
▁rule	-10.5732
ever	-10.5736
▁usa	-10.5739
except	-10.5743
que	-10.5744
▁prepared	-10.575
▁pack	-10.575
comedy	-10.5759
▁ro	-10.5761
▁excitement	-10.5788
▁alright	-10.5789
▁crude	-10.5792
▁tarzan	-10.5794
▁bin	-10.5795
law	-10.5796
▁focuses	-10.5796
▁holding	-10.5803
▁kiss	-10.5806
▁drinking	-10.5809
▁flashback	-10.5811
▁sounded	-10.5811
su	-10.5817
iest	-10.5826
▁listening	-10.5828
▁repeated	-10.5835
▁racist	-10.5835
▁unconvincing	-10.5835
▁sir	-10.5835
▁trilogy	-10.5837
▁helen	-10.5839
▁amazed	-10.584
▁everywhere	-10.5843
▁choices	-10.5851
▁ja	-10.5855
▁device	-10.5855
▁westerns	-10.5869
▁intellectual	-10.5877
▁india	-10.5879
▁chair	-10.588
▁jewish	-10.5883
dimensional	-10.5884
▁contact	-10.5884
▁fe	-10.5884
▁miller	-10.5887
▁breath	-10.5889
rated	-10.5894
▁league	-10.5896
style	-10.5897
wood	-10.5898
ham	-10.5903
ng	-10.5912
▁curse	-10.5918
▁shark	-10.5927
▁surprises	-10.5928
▁disagree	-10.5929
▁stanwyck	-10.5931
▁summary	-10.5932
hearted	-10.5936
▁spy	-10.5938
▁hack	-10.5942
▁cant	-10.5943
ina	-10.5943
▁originality	-10.5945
ure	-10.5957
relatively	-10.5959
▁letter	-10.5963
").	-10.5966
▁ludicrous	-10.5967
▁stranger	-10.597
▁storm	-10.5978
▁eastwood	-10.5978
▁false	-10.5979
▁experiences	-10.5979
▁downright	-10.5982
▁donald	-10.5984
▁skill	-10.599
▁convinced	-10.5998
▁depiction	-10.6
night	-10.6002
▁blend	-10.6008
▁delight	-10.6012
▁focused	-10.6015
▁breaking	-10.602
▁claims	-10.6021
▁multi	-10.6025
▁funnier	-10.6026
▁drew	-10.6026
▁interpretation	-10.6026
▁honor	-10.6027
anyway	-10.6028
▁trapped	-10.6028
▁covered	-10.603
▁via	-10.6045
▁guest	-10.6051
▁movement	-10.6054
▁effectively	-10.6054
▁gruesome	-10.6073
▁status	-10.6073
▁forgettable	-10.6073
▁spite	-10.6077
▁chain	-10.608
▁tear	-10.6082
▁stupidity	-10.6083
▁raised	-10.6085
▁politics	-10.6085
▁serve	-10.6086
▁cor	-10.6087
▁performed	-10.6087
▁mass	-10.6091
▁forth	-10.6091
pl	-10.6094
▁comedian	-10.6099
fest	-10.611
▁favorites	-10.6112
▁confront	-10.612
▁hire	-10.6121
ised	-10.6121
▁facial	-10.6122
▁legendary	-10.6122
▁silver	-10.6124
▁goofy	-10.6124
▁required	-10.6129
▁haunted	-10.613
▁interviews	-10.6131
▁dress	-10.6139
▁environment	-10.6139
▁bound	-10.6144
▁row	-10.6145
▁flash	-10.6145
▁mi	-10.6146
▁pretend	-10.615
ff	-10.6153
▁snow	-10.6161
▁basis	-10.617
▁closing	-10.617
▁broad	-10.6171
▁uninteresting	-10.6171
▁revolution	-10.6172
▁mainstream	-10.6173
▁ken	-10.6174
▁10/10	-10.6188
▁corner	-10.6188
▁captures	-10.6201
▁fabulous	-10.6219
▁dinner	-10.6219
big	-10.622
▁authentic	-10.622
▁massacre	-10.6221
something	-10.6223
▁dracula	-10.6224
▁char	-10.6228
▁combined	-10.6232
▁delivery	-10.6235
▁lane	-10.6235
▁bi	-10.6244
▁hole	-10.6262
▁afternoon	-10.6268
▁fbi	-10.6269
▁metal	-10.6276
▁mildly	-10.6276
▁patrick	-10.6276
ker	-10.6282
lon	-10.6295
▁cook	-10.63
▁bell	-10.6314
▁throwing	-10.6316
▁holiday	-10.6317
▁understood	-10.6317
▁dennis	-10.6325
▁entertain	-10.6336
called	-10.6341
▁granted	-10.6341
sen	-10.6345
▁object	-10.6351
▁equal	-10.6354
▁initial	-10.6355
ette	-10.6359
▁daniel	-10.636
▁dragon	-10.636
ups	-10.6367
▁reminiscent	-10.6368
▁lloyd	-10.6369
▁seasons	-10.6371
▁friday	-10.6375
▁punch	-10.6381
▁expressions	-10.6384
izing	-10.64
▁rush	-10.6406
▁pan	-10.6409
▁tune	-10.641
▁matters	-10.641
▁africa	-10.6413
▁victor	-10.6415
▁mgm	-10.6416
▁holmes	-10.6417
▁struggling	-10.6418
▁sch	-10.6419
▁columbo	-10.6422
▁karen	-10.6422
▁lonely	-10.6423
cut	-10.6424
▁appreciated	-10.6426
▁starred	-10.6427
▁hired	-10.6433
▁gag	-10.6446
▁offered	-10.6451
▁reference	-10.6456
▁critical	-10.6457
▁ham	-10.646
ville	-10.646
▁heavily	-10.6466
▁susan	-10.6474
▁stayed	-10.6478
tra	-10.6482
▁sole	-10.6495
▁weapons	-10.6495
▁paint	-10.6499
▁learning	-10.6503
gan	-10.6505
▁brooks	-10.6517
▁quirky	-10.6522
▁cultural	-10.6523
spoilers	-10.6529
▁indie	-10.6536
▁directly	-10.6541
▁deeper	-10.6543
den	-10.6543
▁topic	-10.6558
▁perform	-10.6562
ray	-10.6565
mr	-10.6566
▁stylish	-10.6567
▁disbelief	-10.6567
▁sinatra	-10.657
▁sunday	-10.657
▁elizabeth	-10.6573
▁carried	-10.6576
▁rank	-10.6589
▁occasional	-10.6608
▁sitcom	-10.6609
▁scares	-10.6612
▁nose	-10.6613
▁pregnant	-10.6618
▁relie	-10.662
▁mistakes	-10.6621
▁halfway	-10.6623
▁mirror	-10.666
▁suffers	-10.6661
▁poignant	-10.6669
▁extent	-10.6669
▁introduction	-10.6669
▁nude	-10.667
▁imagery	-10.667
▁passing	-10.6672
▁quote	-10.6677
▁birth	-10.6677
▁changing	-10.6678
hard	-10.668
▁demons	-10.6684
▁destroyed	-10.6694
run	-10.6706
▁touched	-10.671
▁balance	-10.6712
▁screenwriter	-10.6717
▁plastic	-10.672
are	-10.6723
▁tongue	-10.6724
▁retarded	-10.6726
▁beloved	-10.6727
"),	-10.673
▁wins	-10.673
▁killers	-10.6732
▁closer	-10.6747
▁sold	-10.6748
ab	-10.6752
class	-10.6752
▁julia	-10.6757
▁solve	-10.6757
▁whoever	-10.6758
▁monkey	-10.6767
writer	-10.677
spoiler	-10.6772
▁blah	-10.6772
▁internet	-10.6772
▁graphics	-10.6777
▁dear	-10.6779
▁superman	-10.6788
▁warner	-10.679
▁:)	-10.6796
▁jerk	-10.6808
▁explains	-10.6809
▁pa	-10.6816
▁wanna	-10.682
▁lay	-10.6821
▁baseball	-10.6824
▁underground	-10.6824
▁lazy	-10.6824
▁block	-10.6825
▁chilling	-10.6836
▁upset	-10.684
▁***	-10.6841
▁desperately	-10.6842
▁ron	-10.6852
▁designed	-10.6852
..."	-10.6857
▁prevent	-10.6865
▁gr	-10.6867
▁inspiration	-10.6874
▁magazine	-10.6876
▁necessarily	-10.6876
▁comical	-10.6879
▁blair	-10.688
▁rings	-10.6881
zz	-10.6888
▁challenge	-10.6906
▁fianc	-10.6918
▁hint	-10.6918
ward	-10.6921
▁magical	-10.6924
▁dollar	-10.6926
▁obsession	-10.6928
▁medical	-10.6928
▁entry	-10.693
▁wwii	-10.6933
▁parent	-10.6938
▁2.	-10.6939
▁tommy	-10.6941
▁pulls	-10.6943
▁beer	-10.6952
▁princess	-10.696
▁stretch	-10.6963
▁oz	-10.6965
ens	-10.6969
▁remote	-10.6969
▁ver	-10.697
▁faithful	-10.6974
acting	-10.6975
▁multiple	-10.698
▁racism	-10.6981
▁sutherland	-10.6982
▁kane	-10.6988
▁letting	-10.6992
ach	-10.6994
▁experiment	-10.7005
▁driven	-10.7005
nie	-10.7012
▁imp	-10.7015
▁size	-10.702
▁adding	-10.7023
▁guide	-10.7024
▁decades	-10.7026
new	-10.7027
jack	-10.7029
ization	-10.703
▁200	-10.7035
▁complicated	-10.7035
▁glass	-10.7036
▁ocean	-10.7037
▁theory	-10.7041
▁everyday	-10.7042
han	-10.7052
▁causes	-10.7053
▁buck	-10.7069
▁walker	-10.7073
▁australia	-10.7077
▁daily	-10.7087
▁realizes	-10.7089
▁presentation	-10.7092
▁madness	-10.7094
▁nazi	-10.7095
▁hammer	-10.7096
▁figures	-10.7107
▁attempting	-10.7113
gy	-10.7125
▁jon	-10.7135
▁identify	-10.714
▁breathtaking	-10.714
▁ashamed	-10.714
vo	-10.7143
▁italy	-10.7149
▁del	-10.715
rr	-10.7152
▁throws	-10.7157
▁arms	-10.7159
row	-10.716
▁cooper	-10.7164
▁khan	-10.7168
▁roberts	-10.717
▁adventures	-10.7171
▁mac	-10.7182
▁burns	-10.7182
▁clown	-10.7194
▁pacino	-10.7196
▁bitter	-10.7196
▁nonetheless	-10.7198
▁barry	-10.7203
▁broke	-10.7205
▁card	-10.7209
▁properly	-10.721
▁serves	-10.7219
▁lights	-10.7225
▁nation	-10.7238
▁text	-10.7241
its	-10.7241
▁horrific	-10.7247
▁manager	-10.7248
▁appalling	-10.7248
make	-10.7252
▁civil	-10.7253
▁overcome	-10.7255
known	-10.7255
▁ironic	-10.7256
▁fourth	-10.726
▁wears	-10.7261
▁virgin	-10.7266
▁hardy	-10.7277
▁bugs	-10.7284
▁lust	-10.7285
▁gi	-10.7288
▁timing	-10.7289
▁succeeds	-10.7289
ju	-10.7289
▁dislike	-10.7292
▁arrives	-10.7303
▁corrupt	-10.7304
▁bollywood	-10.7304
▁brand	-10.7306
▁cameron	-10.7309
black	-10.7312
▁mentally	-10.7322
▁17	-10.7334
▁thousands	-10.7338
00	-10.7339
▁farm	-10.7339
lie	-10.735
▁nuclear	-10.7357
▁che	-10.7357
▁attraction	-10.7359
tro	-10.7374
▁colors	-10.7374
▁served	-10.7374
▁sides	-10.7379
▁idiotic	-10.7379
dr	-10.738
air	-10.7384
story	-10.739
▁ratings	-10.7391
coming	-10.7393
▁related	-10.74
▁mere	-10.7403
cur	-10.7404
▁portrait	-10.7412
▁sinister	-10.7412
▁embarrassed	-10.7415
▁greater	-10.7416
▁storytelling	-10.7416
▁condition	-10.7419
▁hundred	-10.742
):	-10.7428
ning	-10.7433
▁angle	-10.7443
cat	-10.7444
▁leg	-10.7445
▁picks	-10.7445
▁marvelous	-10.7456
▁lou	-10.746
▁trick	-10.7466
▁birthday	-10.7468
▁mummy	-10.7468
▁hong	-10.7468
play	-10.7469
▁pal	-10.7471
▁revolves	-10.7473
▁ted	-10.748
▁opened	-10.7481
▁flawed	-10.7482
pre	-10.7492
▁versions	-10.7493
other	-10.75
▁stunts	-10.7509
▁flaw	-10.7513
▁exceptional	-10.7519
▁imaginative	-10.7523
▁stiff	-10.7523
▁zone	-10.7528
▁cousin	-10.7529
▁complain	-10.7534
▁tense	-10.754
▁woody	-10.7545
▁tank	-10.7547
▁shower	-10.756
▁pool	-10.756
▁criminals	-10.757
▁achieve	-10.757
▁matthau	-10.7579
▁backdrop	-10.758
▁silence	-10.7584
val	-10.7587
▁placed	-10.759
▁artists	-10.7593
▁convey	-10.7609
▁oil	-10.7618
▁significant	-10.7623
▁slight	-10.7626
▁reveals	-10.7628
▁credibility	-10.7635
▁hoffman	-10.7635
▁savage	-10.7635
▁1940	-10.7636
▁lugosi	-10.7637
▁soviet	-10.7639
michael	-10.7646
hero	-10.7653
▁hu	-10.7657
▁caring	-10.7678
▁sleeping	-10.7682
face	-10.7686
right	-10.769
▁advantage	-10.7691
▁confusion	-10.7691
▁credible	-10.7691
▁sexuality	-10.7695
▁freddy	-10.7697
▁1.	-10.7699
set	-10.7705
▁helping	-10.7714
▁stays	-10.7715
gar	-10.7719
rk	-10.7721
town	-10.7722
▁burn	-10.7726
▁tea	-10.773
▁hi	-10.7731
▁wave	-10.7732
▁threat	-10.774
▁bush	-10.774
▁gal	-10.774
▁restaurant	-10.7748
▁neighborhood	-10.7748
▁countries	-10.7749
▁upper	-10.7752
▁blank	-10.7752
str	-10.7762
▁disc	-10.7766
▁musicals	-10.7772
ow	-10.7774
▁carries	-10.7781
two	-10.7782
▁succeed	-10.7784
▁pitt	-10.7784
ugh	-10.7787
▁los	-10.7797
▁competition	-10.7805
▁wicked	-10.7805
▁fortune	-10.7805
▁gripping	-10.7805
▁colour	-10.7806
▁sleazy	-10.7807
▁believes	-10.7809
▁matrix	-10.7809
▁mouse	-10.7812
▁sarah	-10.7814
▁clips	-10.7815
▁enjoyment	-10.7816
▁stunt	-10.782
▁ninja	-10.7823
ny	-10.7823
▁union	-10.7828
▁cave	-10.7829
▁ni	-10.783
▁greatly	-10.7831
▁accepted	-10.7834
▁heist	-10.7835
such	-10.7853
▁views	-10.7858
fa	-10.7858
▁horrendous	-10.7863
▁innocence	-10.7863
▁minds	-10.7863
▁ultra	-10.7863
▁navy	-10.7863
▁nowadays	-10.7865
ig	-10.7865
▁duke	-10.7865
▁perfection	-10.7873
dead	-10.7874
▁motivation	-10.7878
tch	-10.788
ec	-10.7881
▁fairy	-10.789
aka	-10.7895
▁craft	-10.7904
▁combine	-10.7905
py	-10.7909
ki	-10.792
▁franchise	-10.7921
▁cardboard	-10.7921
▁foster	-10.7921
▁intent	-10.7922
▁rachel	-10.7926
▁roman	-10.7933
white	-10.7933
ged	-10.7937
▁month	-10.7941
▁react	-10.7948
▁useless	-10.7949
▁weight	-10.7952
series	-10.7959
bel	-10.7964
under	-10.7964
▁commit	-10.797
▁trail	-10.7973
▁jet	-10.7973
▁clark	-10.7975
▁mexico	-10.7979
▁response	-10.7979
▁thirty	-10.7979
▁uncomfortable	-10.7979
▁unforgettable	-10.7979
?).	-10.798
▁quest	-10.7984
▁bu	-10.7984
▁push	-10.7991
because	-10.7992
▁sorts	-10.7996
▁guessing	-10.7998
ren	-10.8004
ang	-10.8018
▁wa	-10.802
ified	-10.8021
---	-10.8022
▁miserably	-10.8037
▁catholic	-10.8039
▁lovable	-10.8039
▁thief	-10.804
▁burton	-10.8041
▁grey	-10.8042
▁peak	-10.8044
▁bug	-10.8047
despite	-10.8051
▁initially	-10.8053
▁fictional	-10.8054
▁dave	-10.8056
▁thousand	-10.8057
hey	-10.8057
▁string	-10.8058
▁bucks	-10.8068
▁settings	-10.8073
"?	-10.8086
die	-10.8091
▁pie	-10.8095
▁exercise	-10.8096
▁ripped	-10.8097
▁cynical	-10.8098
▁bobby	-10.8102
▁spoken	-10.8104
▁answers	-10.8107
▁sentimental	-10.8107
▁replaced	-10.8108
▁ego	-10.811
▁merit	-10.8118
▁spell	-10.812
▁physically	-10.812
▁teach	-10.8125
▁bra	-10.8128
▁bridge	-10.8131
low	-10.8136
▁searching	-10.8143
▁pe	-10.8143
▁repeat	-10.8146
▁lacked	-10.8147
▁assassin	-10.8152
▁wreck	-10.8154
▁deaths	-10.8155
▁kennedy	-10.8155
▁tarantino	-10.8155
▁firm	-10.8155
▁boredom	-10.8156
▁endearing	-10.8158
▁caine	-10.8158
▁specific	-10.816
▁determined	-10.8161
▁instantly	-10.8163
▁michelle	-10.8164
▁(19	-10.8166
▁expert	-10.8169
unfortunately	-10.8169
▁dar	-10.8178
movies	-10.8181
▁drives	-10.819
uck	-10.8194
▁worry	-10.8194
▁enjoying	-10.8194
characterization	-10.8211
▁courage	-10.8214
▁discussion	-10.8217
▁chasing	-10.822
▁**	-10.8223
▁adapted	-10.8224
▁2001	-10.8225
▁sally	-10.8225
▁brad	-10.8238
▁technique	-10.8239
▁notable	-10.8242
▁technically	-10.8247
▁techniques	-10.825
▁purely	-10.8262
▁neat	-10.8266
▁snakes	-10.8266
▁press	-10.8269
▁refer	-10.8272
▁examples	-10.8272
▁struggles	-10.8274
▁reynolds	-10.8275
▁homage	-10.8278
▁tall	-10.8279
▁minimal	-10.829
▁warn	-10.829
▁weapon	-10.8302
▁bow	-10.8302
...)	-10.8304
und	-10.8304
ji	-10.831
wise	-10.8314
▁carrying	-10.832
▁shines	-10.8325
ending	-10.8332
q	-10.8334
▁investigate	-10.8335
▁hiding	-10.8335
▁britain	-10.8335
▁toilet	-10.8336
tan	-10.8339
will	-10.834
▁basement	-10.834
▁wealthy	-10.834
▁luke	-10.834
▁lying	-10.8341
▁vincent	-10.8342
▁emily	-10.8342
▁gray	-10.8343
▁fallen	-10.8344
▁oliver	-10.8344
▁thankfully	-10.8346
▁busy	-10.8348
perhaps	-10.835
▁pg	-10.8358
▁wasting	-10.8371
▁miscast	-10.8375
ld	-10.8385
▁sings	-10.8386
▁sand	-10.8388
▁kidnapped	-10.8395
▁controversial	-10.8397
▁predator	-10.8402
ien	-10.8403
▁frequently	-10.8403
▁meat	-10.8403
▁wannabe	-10.8406
▁hooked	-10.8408
▁trap	-10.8409
▁meaningful	-10.841
school	-10.8411
please	-10.8411
long	-10.8412
▁von	-10.8415
▁stumble	-10.8424
▁millions	-10.8425
▁rid	-10.8431
▁attacked	-10.8433
▁attempted	-10.8441
done	-10.8447
▁sidekick	-10.8457
▁trite	-10.8457
▁proof	-10.8459
▁happiness	-10.846
▁pen	-10.8462
▁link	-10.8464
▁attacks	-10.8467
▁neck	-10.8468
▁resort	-10.848
▁admire	-10.8489
▁finger	-10.8494
▁thoughts	-10.8495
▁novels	-10.8498
ov	-10.85
▁critic	-10.8503
▁cha	-10.8504
▁satan	-10.8504
/10	-10.8505
▁knight	-10.8506
▁hysterical	-10.8507
gen	-10.851
▁productions	-10.851
▁performers	-10.8511
▁ward	-10.8516
▁library	-10.8518
▁dawn	-10.8518
▁catherine	-10.8523
▁friendly	-10.8525
▁blade	-10.853
title	-10.8531
▁shy	-10.8533
▁farce	-10.8536
▁ri	-10.854
▁laura	-10.854
▁riding	-10.8543
▁tales	-10.8544
▁jay	-10.8546
za	-10.8555
▁cringe	-10.8565
▁coast	-10.857
▁concerns	-10.8572
▁intensity	-10.8579
▁eccentric	-10.8579
▁flynn	-10.858
▁contract	-10.858
!),	-10.8585
▁consequences	-10.8586
▁rap	-10.8588
▁angels	-10.8589
▁nine	-10.8589
▁q	-10.8592
pin	-10.8594
▁alas	-10.8606
▁blows	-10.8607
▁feed	-10.8608
▁packed	-10.861
▁connect	-10.8611
bs	-10.8613
▁neighbor	-10.8614
▁phil	-10.8618
▁bur	-10.8631
▁wondered	-10.8633
▁yo	-10.8634
act	-10.8641
▁stole	-10.8641
▁hills	-10.8643
▁personalities	-10.8643
▁bible	-10.8644
▁invisible	-10.8646
▁val	-10.8648
▁burt	-10.8651
▁colorful	-10.8653
▁whereas	-10.8656
▁maker	-10.8658
▁lesser	-10.8663
▁cameos	-10.8664
▁command	-10.8665
▁outer	-10.867
▁christ	-10.8675
▁dinosaurs	-10.8678
▁broadcast	-10.8688
▁measure	-10.8689
▁com	-10.8703
▁superficial	-10.8704
▁dragged	-10.8704
▁4/10	-10.8705
▁ralph	-10.8709
▁walken	-10.871
▁1930	-10.8719
existent	-10.872
om	-10.8723
▁suffered	-10.8724
▁carl	-10.8731
je	-10.8737
▁ideal	-10.874
eg	-10.8755
▁checking	-10.8757
▁90'	-10.8762
▁glory	-10.8767
▁redemption	-10.8767
▁connery	-10.8767
▁slick	-10.8767
▁carrey	-10.8767
▁mansion	-10.8768
▁baker	-10.8768
▁hbo	-10.8769
▁annoyed	-10.8773
▁dealt	-10.8777
▁freeman	-10.878
▁appearing	-10.8796
any	-10.8796
▁guts	-10.8798
▁jumps	-10.8805
▁lin	-10.8814
pol	-10.8816
ford	-10.8821
▁hundreds	-10.8824
▁scientists	-10.8826
▁atmospheric	-10.883
▁tribute	-10.8833
▁flawless	-10.8835
▁poster	-10.8837
▁thrilling	-10.8845
▁lisa	-10.8846
▁drags	-10.8846
▁gotta	-10.8854
▁explore	-10.8854
▁shoes	-10.8855
▁forgive	-10.8856
tom	-10.8859
type	-10.886
ped	-10.8866
ung	-10.8867
▁web	-10.887
▁horses	-10.889
▁elvis	-10.8894
▁piano	-10.8894
▁commercials	-10.8895
was	-10.8896
did	-10.8897
▁gen	-10.891
▁persona	-10.8919
▁march	-10.8926
▁har	-10.8938
▁bare	-10.8941
▁screw	-10.8944
▁insist	-10.8945
▁striking	-10.8946
▁definite	-10.8947
ven	-10.8948
▁freak	-10.895
▁legs	-10.8951
liners	-10.8953
▁bird	-10.8954
▁generous	-10.8958
▁sneak	-10.8958
▁nancy	-10.8958
▁hy	-10.8961
▁arnold	-10.8961
▁appearances	-10.8962
▁jonathan	-10.8963
▁regardless	-10.8964
▁jamie	-10.8964
▁beating	-10.8965
▁ram	-10.8967
▁exists	-10.8973
▁connected	-10.8973
▁wire	-10.8984
▁trial	-10.9003
▁companion	-10.9022
▁easier	-10.9023
▁happily	-10.9023
▁notorious	-10.9023
▁seeking	-10.9023
▁newspaper	-10.9023
▁virus	-10.9023
▁bergman	-10.9023
▁duck	-10.9024
▁editor	-10.9025
▁acceptable	-10.9025
▁sidney	-10.9026
▁elsewhere	-10.9028
▁surrounding	-10.903
ek	-10.9031
▁accomplished	-10.9032
▁laid	-10.9032
ura	-10.9032
▁blast	-10.9035
▁aired	-10.9037
▁aunt	-10.9041
▁shirt	-10.9041
▁suggests	-10.9046
show	-10.9049
▁crack	-10.9054
berg	-10.9055
▁raise	-10.9058
▁subplot	-10.9068
▁facts	-10.9073
▁practice	-10.9074
▁oddly	-10.9075
▁load	-10.9075
▁outrageous	-10.9078
▁garden	-10.9079
▁guilt	-10.9079
▁loser	-10.9084
▁offering	-10.9087
▁curiosity	-10.9088
▁elaborate	-10.9088
▁ensemble	-10.9088
▁investigation	-10.9088
▁ourselves	-10.9088
▁disease	-10.9088
▁exchange	-10.9088
▁kirk	-10.9088
▁expensive	-10.909
▁dancer	-10.9093
▁rogers	-10.9096
▁plant	-10.9099
▁briefly	-10.912
▁ga	-10.9122
▁aged	-10.9125
▁boot	-10.9134
▁plague	-10.9138
▁fix	-10.9138
!!!!!	-10.9141
▁cure	-10.9146
▁y	-10.9151
▁album	-10.9153
▁chicago	-10.9153
▁greek	-10.9153
▁laurel	-10.9153
▁unpleasant	-10.9153
▁eerie	-10.9153
▁melodramatic	-10.9154
▁owen	-10.9155
▁spiritual	-10.9156
▁1990	-10.9156
▁steps	-10.9158
▁established	-10.9159
▁relative	-10.9162
▁lauren	-10.9164
▁stinker	-10.9164
▁fonda	-10.9166
▁protagonists	-10.9166
▁strangely	-10.9167
ily	-10.9177
▁bone	-10.9177
gh	-10.9177
▁noble	-10.918
▁disappoint	-10.9183
ball	-10.9184
▁iron	-10.919
▁refuses	-10.9192
yn	-10.9194
▁successfully	-10.9196
▁eve	-10.9198
▁va	-10.9198
▁selling	-10.9199
▁spending	-10.92
minded	-10.9207
▁ear	-10.9208
▁lion	-10.9214
▁korean	-10.922
▁jessica	-10.9222
▁45	-10.9225
▁tons	-10.9227
▁irony	-10.9227
▁2000	-10.9228
▁intentions	-10.923
▁highlights	-10.9233
▁rushed	-10.9238
robert	-10.924
▁lessons	-10.9241
▁insulting	-10.9252
▁bath	-10.926
▁shorts	-10.9277
▁thick	-10.9287
▁dubbing	-10.9288
▁madonna	-10.9288
▁liberal	-10.9288
▁betty	-10.929
▁staff	-10.9291
▁pointed	-10.9292
▁philip	-10.9292
▁sandra	-10.9295
▁24	-10.9306
▁mild	-10.9307
▁belongs	-10.9311
▁fatal	-10.9317
▁pit	-10.9319
▁suits	-10.9322
▁failing	-10.9328
▁ghosts	-10.9329
ft	-10.9331
ising	-10.9333
▁germans	-10.9333
▁gift	-10.9337
▁competent	-10.934
▁sexually	-10.9342
▁creators	-10.9342
mu	-10.935
lam	-10.9351
▁struck	-10.9352
▁uninspired	-10.9352
▁opposed	-10.9356
hu	-10.9356
▁terrorist	-10.9364
girl	-10.9365
▁eva	-10.9368
▁trade	-10.937
▁heat	-10.9375
paced	-10.9377
▁penn	-10.9386
▁chases	-10.939
▁notch	-10.9394
▁intrigue	-10.9403
▁landscape	-10.9405
▁buff	-10.9409
▁sha	-10.9413
core	-10.9416
▁bottle	-10.9419
▁sophisticated	-10.9422
▁attracted	-10.9431
▁titles	-10.9437
▁cup	-10.9446
▁gu	-10.9448
▁bon	-10.946
▁handful	-10.9466
▁lab	-10.9466
▁defend	-10.9468
▁argue	-10.9471
cho	-10.9471
▁bullet	-10.9474
▁profound	-10.9475
▁showcase	-10.9481
▁doll	-10.9483
▁alexander	-10.9486
▁abc	-10.9487
▁kris	-10.9492
▁cliff	-10.9493
▁fitting	-10.9499
hop	-10.9505
video	-10.9509
about	-10.951
stop	-10.9515
▁crafted	-10.9515
yet	-10.9523
▁intention	-10.9523
▁andrews	-10.9527
▁mate	-10.9536
▁pin	-10.9536
▁jobs	-10.9537
▁border	-10.9542
both	-10.9542
part	-10.9543
▁winter	-10.9549
▁complaint	-10.9553
▁charisma	-10.9554
▁obscure	-10.9554
▁swedish	-10.9554
▁altman	-10.9554
▁sends	-10.9555
▁celluloid	-10.9556
▁damme	-10.9556
cast	-10.9557
▁torn	-10.9557
▁attached	-10.9558
▁lucy	-10.9559
▁needless	-10.9564
▁beg	-10.9566
har	-10.9575
minute	-10.9578
dis	-10.9579
▁bang	-10.9581
▁provid	-10.9596
▁receive	-10.9598
▁stealing	-10.96
▁hype	-10.9604
▁tag	-10.9612
fire	-10.9612
▁spring	-10.9617
▁ambitious	-10.9623
▁brilliance	-10.9623
▁clint	-10.9624
▁flop	-10.9624
▁norris	-10.9625
▁powell	-10.9625
▁angeles	-10.9629
▁cole	-10.963
▁carefully	-10.9632
ations	-10.9637
gra	-10.9644
▁outcome	-10.9646
thriller	-10.9646
cu	-10.9648
▁maintain	-10.967
▁explicit	-10.9681
▁benefit	-10.9683
▁essential	-10.9687
50	-10.9689
▁cruise	-10.9692
▁dentist	-10.9692
▁helicopter	-10.9692
▁lincoln	-10.9692
▁splendid	-10.9692
▁bleak	-10.9692
▁medium	-10.9692
▁mitchell	-10.9694
▁2005	-10.9694
▁knife	-10.9696
▁blake	-10.97
▁shall	-10.97
▁engaged	-10.9705
▁canada	-10.9707
▁thrillers	-10.9712
▁jan	-10.9714
▁angela	-10.9714
guy	-10.9716
▁thumbs	-10.9721
ery	-10.9724
▁kicks	-10.973
tz	-10.9735
▁rocket	-10.9736
▁closely	-10.9739
hour	-10.9743
rating	-10.9748
▁troubled	-10.9756
▁afford	-10.9761
▁derek	-10.9761
▁wax	-10.9762
▁spielberg	-10.9763
▁pressure	-10.9765
▁linda	-10.9773
▁ridiculously	-10.9781
special	-10.9786
hood	-10.979
▁spoiled	-10.9792
ries	-10.9794
▁iii	-10.9794
▁remaining	-10.98
ign	-10.9802
▁twin	-10.9808
▁stooges	-10.981
paul	-10.9816
▁pleased	-10.9817
▁tremendous	-10.982
▁allowing	-10.9822
▁hoped	-10.9822
▁interaction	-10.9827
▁triumph	-10.983
▁typically	-10.9831
▁prejudice	-10.9831
▁repetitive	-10.9831
▁threw	-10.9831
▁audio	-10.9831
▁stood	-10.9831
▁crisis	-10.9832
▁comfortable	-10.9832
▁randy	-10.9832
▁spike	-10.9833
▁francis	-10.9833
▁nazis	-10.9833
▁frankenstein	-10.9835
▁stanley	-10.9836
▁slap	-10.9836
▁drunken	-10.9838
put	-10.9841
▁cared	-10.9841
▁overdone	-10.9842
▁0	-10.9842
▁fortunately	-10.9844
▁achieved	-10.985
▁tender	-10.9853
▁corn	-10.9859
▁def	-10.9871
▁timeless	-10.9881
▁raped	-10.9882
▁videos	-10.9893
▁jealous	-10.9893
▁russia	-10.9899
▁pu	-10.9899
▁cats	-10.9899
▁requires	-10.99
▁essence	-10.9902
▁cusack	-10.9902
▁causing	-10.9902
▁installment	-10.9902
▁dropped	-10.9902
▁precious	-10.9902
net	-10.9902
▁spooky	-10.9904
▁brando	-10.9905
▁fx	-10.9908
▁accused	-10.991
▁arrested	-10.991
▁develops	-10.9913
▁fa	-10.9916
▁ruthless	-10.9916
▁lit	-10.9917
▁larger	-10.9918
▁pleasantly	-10.9922
▁cia	-10.9924
world	-10.9925
▁tied	-10.9926
▁resist	-10.9927
▁wishes	-10.9927
▁talked	-10.9929
▁rick	-10.9933
key	-10.9936
▁hook	-10.9945
▁jumping	-10.9946
▁welles	-10.9953
▁impress	-10.9957
▁shi	-10.996
vin	-10.9968
▁split	-10.9972
▁fifteen	-10.9972
▁distance	-10.9972
▁resolution	-10.9972
▁franco	-10.9972
▁operation	-10.9973
▁stops	-10.9974
▁urge	-10.9975
▁increasingly	-10.9976
▁kudos	-10.9979
▁overlooked	-10.9982
▁carol	-10.9993
iv	-10.9998
▁aim	-10.9999
▁noise	-11
▁calm	-11.0001
▁maria	-11.0004
▁grows	-11.0006
▁thrills	-11.0007
▁hence	-11.001
▁hunting	-11.0015
▁mile	-11.0016
▁winds	-11.0017
ino	-11.0018
▁errors	-11.0018
best	-11.0022
▁sport	-11.0024
▁rat	-11.0024
roll	-11.0024
hot	-11.0026
▁arrive	-11.0028
▁button	-11.0029
nu	-11.003
human	-11.0033
▁principal	-11.0044
▁menacing	-11.0044
▁incoherent	-11.0044
▁cried	-11.0044
▁liking	-11.0044
▁victoria	-11.0047
▁hudson	-11.0049
▁destruction	-11.005
▁duo	-11.0053
▁bride	-11.0054
▁sim	-11.0058
alien	-11.0059
▁possessed	-11.0059
▁pot	-11.007
▁escapes	-11.0074
▁killings	-11.0078
▁cap	-11.0079
mel	-11.0087
▁tortured	-11.0092
ists	-11.0101
▁evident	-11.0104
ties	-11.0105
▁travels	-11.0107
▁heroic	-11.0109
▁je	-11.0113
▁rely	-11.0115
▁disjointed	-11.0116
▁grandfather	-11.0116
▁21	-11.0117
▁preview	-11.0118
▁incident	-11.012
aged	-11.0121
▁photographed	-11.0121
▁reasonably	-11.0122
▁punk	-11.0123
▁wing	-11.0139
▁reactions	-11.0142
▁worthless	-11.0145
▁mill	-11.0148
▁journalist	-11.0148
▁loosely	-11.0149
▁saves	-11.0151
away	-11.0154
▁hearts	-11.0156
▁cow	-11.0169
use	-11.0174
▁ru	-11.0177
▁vague	-11.0177
▁spare	-11.018
come	-11.0184
▁daughters	-11.0185
▁mario	-11.0188
sky	-11.0188
▁translation	-11.0188
▁unbelievably	-11.0188
▁funeral	-11.0188
▁rural	-11.0189
▁kidding	-11.0189
▁pi	-11.0189
▁occur	-11.019
▁kitchen	-11.0191
▁throat	-11.0194
▁shoots	-11.0194
▁matthew	-11.0196
awful	-11.0201
▁importantly	-11.0202
▁locked	-11.0204
▁conventional	-11.021
▁blues	-11.0212
▁discovery	-11.0212
try	-11.0218
▁lend	-11.0228
room	-11.0231
▁dialogs	-11.0239
▁swear	-11.0241
▁jazz	-11.0253
master	-11.0255
▁wrap	-11.0261
▁hamilton	-11.0261
▁narrator	-11.0261
▁3/10	-11.0264
▁trio	-11.0265
▁scientific	-11.0266
▁gar	-11.0268
▁1/2	-11.027
▁demonstrate	-11.0271
▁puppet	-11.0271
▁unintentionally	-11.0271
▁ju	-11.0272
▁logical	-11.0278
▁repeatedly	-11.0279
before	-11.0289
▁demands	-11.029
worthy	-11.0295
▁spots	-11.0295
▁comics	-11.0295
▁meaningless	-11.0296
▁watches	-11.0305
▁report	-11.0313
2)	-11.0325
▁pulling	-11.0326
▁inevitable	-11.0335
▁lemmon	-11.0335
▁poverty	-11.0335
▁absence	-11.0335
▁saint	-11.0335
▁grandmother	-11.0335
▁sandler	-11.0335
▁frustrated	-11.0336
▁50'	-11.0336
▁antics	-11.0337
▁1/10	-11.0337
▁reflection	-11.0338
▁associated	-11.0341
▁luckily	-11.0341
▁prostitute	-11.0342
▁diamond	-11.0342
▁explosion	-11.0343
▁jewel	-11.0344
dom	-11.0345
▁carter	-11.0346
▁notably	-11.0346
▁idiots	-11.0348
▁thoughtful	-11.035
note	-11.035
▁depend	-11.0352
▁sadistic	-11.0352
▁crimes	-11.0353
▁encounters	-11.0353
ship	-11.0355
▁scripted	-11.0355
▁yard	-11.0356
▁icon	-11.0359
▁ross	-11.036
view	-11.0363
having	-11.0363
little	-11.0364
bra	-11.0366
mad	-11.0366
pen	-11.0376
▁woo	-11.0378
▁cases	-11.0393
▁invite	-11.0394
▁nights	-11.0396
▁explosions	-11.0402
▁stereotype	-11.0405
▁endure	-11.0406
▁unbearable	-11.0409
▁austen	-11.0409
▁documentaries	-11.0409
▁altogether	-11.0409
▁symbolism	-11.0409
▁frost	-11.041
▁hideous	-11.041
▁cg	-11.0412
▁combat	-11.0413
▁inspiring	-11.0414
▁craig	-11.0416
▁cabin	-11.0419
▁admittedly	-11.0421
▁picking	-11.0424
▁returning	-11.0428
▁behave	-11.0431
▁segments	-11.0432
▁performing	-11.0439
based	-11.0439
▁ignored	-11.0442
▁afterwards	-11.0443
zi	-11.0444
▁suspects	-11.0449
▁continued	-11.0451
▁2)	-11.0458
rn	-11.0462
▁delivering	-11.0469
ou	-11.0475
▁health	-11.0476
▁royal	-11.0477
▁pink	-11.048
▁8/10	-11.0482
▁favour	-11.0483
▁buddies	-11.0483
▁website	-11.0484
▁buried	-11.0484
▁devoid	-11.0484
▁vicious	-11.0484
▁burst	-11.0487
▁countless	-11.0487
▁listed	-11.0487
▁realise	-11.0487
▁hardcore	-11.0488
▁aka	-11.0491
▁ticket	-11.0492
▁removed	-11.0494
▁smoking	-11.0496
▁tap	-11.0496
▁offended	-11.0497
▁emma	-11.0498
▁hitting	-11.0499
dan	-11.0502
rock	-11.0502
▁reasonable	-11.051
▁sp	-11.0511
david	-11.0514
▁grab	-11.0516
hand	-11.0516
▁riot	-11.0517
▁myth	-11.053
▁nut	-11.0535
▁traveling	-11.054
▁ke	-11.0542
▁kinds	-11.0542
▁wine	-11.0547
▁boom	-11.0556
ving	-11.0558
▁norman	-11.0558
▁exotic	-11.0559
▁miserable	-11.0559
▁boast	-11.0559
▁trace	-11.056
▁duty	-11.056
▁terrifying	-11.0561
▁marie	-11.0561
van	-11.0562
▁wrestling	-11.0562
▁loyal	-11.0563
▁gentle	-11.0563
▁tan	-11.0565
▁beaten	-11.0566
▁sen	-11.0567
▁argument	-11.0569
port	-11.0571
▁corpse	-11.0571
bal	-11.0573
▁factory	-11.0579
▁prize	-11.058
▁faced	-11.0582
▁pushed	-11.0584
▁ch	-11.0585
once	-11.0587
finally	-11.0596
▁fond	-11.061
▁bump	-11.0614
▁attract	-11.0617
▁guarantee	-11.0619
▁goal	-11.0628
▁occurs	-11.0631
▁clumsy	-11.0634
▁innovative	-11.0634
▁pseudo	-11.0634
▁streep	-11.0634
▁unwatchable	-11.0635
▁involvement	-11.0635
▁dedicated	-11.0636
▁kurt	-11.0639
▁clues	-11.0642
▁explaining	-11.0644
▁uniform	-11.0647
▁albeit	-11.0649
▁folk	-11.0649
▁intrigued	-11.0652
▁ranks	-11.0653
list	-11.0656
▁performer	-11.0658
vy	-11.0658
▁burning	-11.0662
▁shine	-11.0673
qui	-11.0678
▁tricks	-11.0683
▁detailed	-11.0685
▁tie	-11.0688
wing	-11.0695
▁fer	-11.0701
ible	-11.0702
▁believing	-11.0711
▁possibility	-11.0711
▁tribe	-11.0711
▁gothic	-11.0711
▁homosexual	-11.0713
▁3.	-11.0713
▁photographer	-11.0717
▁hitch	-11.0718
▁pulp	-11.0719
▁shadows	-11.0725
▁photo	-11.0727
ap	-11.0728
far	-11.0729
▁glenn	-11.0733
▁draws	-11.0733
going	-11.0735
bell	-11.0737
▁chi	-11.0737
......	-11.0742
▁agents	-11.0748
▁te	-11.0759
▁kar	-11.076
av	-11.0766
ric	-11.0771
▁digital	-11.078
▁vice	-11.0781
really	-11.0781
▁escaped	-11.0784
▁reflect	-11.0785
▁rocks	-11.0787
▁horrid	-11.0788
▁involve	-11.0789
▁eighties	-11.0789
▁morality	-11.0791
▁cards	-11.0792
▁importance	-11.0792
▁murderous	-11.0793
▁jeremy	-11.0795
▁tit	-11.0795
miss	-11.0796
▁leslie	-11.0796
▁neil	-11.0797
▁fighter	-11.0803
▁mu	-11.0808
med	-11.081
rick	-11.0818
death	-11.082
nothing	-11.0822
▁souls	-11.0825
rie	-11.0831
▁ty	-11.0839
have	-11.0843
▁willis	-11.0845
▁resembles	-11.0851
▁returned	-11.0858
▁stated	-11.0858
▁waters	-11.0863
▁pearl	-11.0863
▁abysmal	-11.0865
▁junior	-11.0865
▁psychiatrist	-11.0865
▁relevant	-11.0865
high	-11.0865
▁generic	-11.0866
▁valley	-11.0866
▁accompanie	-11.0867
▁margaret	-11.0868
▁falk	-11.0868
▁hatred	-11.0871
▁splatter	-11.0872
▁fancy	-11.0873
fully	-11.0875
▁displays	-11.0875
▁clothing	-11.0875
▁jake	-11.0875
▁bud	-11.0877
▁lifestyle	-11.0879
▁aimed	-11.0882
▁parallel	-11.0883
▁closed	-11.0884
▁sadness	-11.0884
▁succeeded	-11.0885
▁strike	-11.0889
▁tunes	-11.089
▁teaching	-11.0892
▁et	-11.0896
woman	-11.0898
okay	-11.0898
▁pants	-11.0899
▁butcher	-11.0912
▁porno	-11.0916
▁messages	-11.0917
▁predict	-11.0927
▁inventive	-11.0944
▁occurred	-11.0944
▁specifically	-11.0944
▁spark	-11.0944
▁devoted	-11.0946
▁quinn	-11.0946
▁sue	-11.0948
▁directorial	-11.0955
▁option	-11.0956
▁jar	-11.0958
ice	-11.0963
▁breasts	-11.0964
point	-11.0975
▁infamous	-11.0977
book	-11.098
▁individuals	-11.0982
▁dramas	-11.0983
▁pale	-11.0984
▁unit	-11.099
▁solo	-11.0993
▁staying	-11.1003
▁harm	-11.1003
ability	-11.1005
▁des	-11.1009
▁square	-11.101
▁vivid	-11.1011
▁defeat	-11.1014
pp	-11.1019
▁frustrating	-11.1022
▁crystal	-11.1022
▁solution	-11.1022
▁holly	-11.1022
▁hopper	-11.1023
▁gabriel	-11.1023
▁barney	-11.1024
▁flee	-11.1026
▁disturbed	-11.1026
▁nearby	-11.103
▁amanda	-11.103
▁beats	-11.1031
▁justify	-11.1037
▁commented	-11.1038
hy	-11.104
▁dust	-11.1041
▁improved	-11.1041
▁revelation	-11.1046
▁misses	-11.1048
▁snake	-11.105
▁gra	-11.1053
▁bette	-11.1059
▁represents	-11.106
▁indians	-11.1061
▁goodness	-11.1066
▁mann	-11.1068
▁compar	-11.107
gr	-11.1079
▁interact	-11.1081
▁mail	-11.1084
▁damage	-11.1086
▁assault	-11.1087
▁dump	-11.1088
▁dimension	-11.109
▁oscars	-11.1092
▁reunion	-11.1101
▁yesterday	-11.1101
▁territory	-11.1101
▁resemblance	-11.1103
▁menace	-11.1103
▁lucas	-11.1103
▁affection	-11.1105
▁hanks	-11.1106
ative	-11.1106
▁inspector	-11.1106
▁dorothy	-11.1107
▁lol	-11.1108
▁phrase	-11.1108
▁drivel	-11.111
▁steel	-11.1114
cl	-11.1126
▁daring	-11.113
▁todd	-11.1131
▁revealing	-11.1139
motion	-11.114
acted	-11.1145
▁props	-11.1146
▁rod	-11.1152
▁recording	-11.1157
▁transfer	-11.1161
▁motives	-11.1161
▁settle	-11.1169
▁subsequent	-11.117
▁notion	-11.1171
▁masterful	-11.1172
▁improve	-11.1177
hr	-11.1177
▁battles	-11.1179
▁argento	-11.1181
▁nelson	-11.1181
▁suspicious	-11.1181
▁mafia	-11.1181
▁trademark	-11.1182
▁bathroom	-11.1182
▁wrapped	-11.1182
▁robbery	-11.1184
▁fo	-11.1184
▁spider	-11.1184
▁quarter	-11.1185
▁extended	-11.1188
▁4.	-11.119
▁cox	-11.1191
▁inappropriate	-11.1194
▁dee	-11.1194
▁sw	-11.1198
▁wheel	-11.1203
▁sn	-11.1203
▁achievement	-11.1208
▁bay	-11.1209
shot	-11.121
ku	-11.1212
▁quit	-11.1214
than	-11.1218
▁rights	-11.1238
▁shortly	-11.1241
▁widow	-11.1244
ack	-11.1244
sta	-11.1247
▁trend	-11.1255
▁chest	-11.126
▁giallo	-11.1262
▁juvenile	-11.1262
▁rendition	-11.1262
▁sleaze	-11.1262
▁worried	-11.1262
▁baldwin	-11.1262
▁undoubtedly	-11.1263
▁leonard	-11.1263
▁transformation	-11.1263
▁slightest	-11.1263
▁diane	-11.1268
▁elderly	-11.127
lar	-11.1271
▁bates	-11.1271
▁airplane	-11.1274
▁childish	-11.1275
▁scheme	-11.1289
▁tip	-11.1289
▁reached	-11.1294
people	-11.1298
sch	-11.131
▁arc	-11.1316
eyed	-11.1329
▁tonight	-11.1335
▁superbly	-11.1335
▁cal	-11.1339
▁cons	-11.1342
▁squad	-11.1343
▁implausible	-11.1343
▁tiger	-11.1344
▁poetry	-11.1344
ez	-11.1344
▁contrary	-11.1347
▁temple	-11.1349
▁bears	-11.1355
od	-11.1355
▁fears	-11.1357
▁screams	-11.1364
▁burned	-11.1364
▁mor	-11.1367
▁boll	-11.137
▁officers	-11.1375
▁existed	-11.1377
▁counter	-11.1381
▁tad	-11.1399
▁engage	-11.1409
▁fl	-11.1409
▁purchase	-11.141
ew	-11.1423
▁detract	-11.1425
▁enemies	-11.1425
▁horrifying	-11.1425
▁illegal	-11.1425
▁university	-11.1425
▁chaos	-11.1426
▁choreography	-11.1426
▁gradually	-11.1427
ches	-11.143
bill	-11.1431
▁bold	-11.1439
▁cliche	-11.1443
▁depicts	-11.1444
▁classes	-11.1448
▁bam	-11.1452
▁currently	-11.1455
pr	-11.1457
▁nun	-11.1458
▁andrew	-11.1465
▁titled	-11.1474
▁metaphor	-11.1483
og	-11.1484
▁prepare	-11.1493
▁poison	-11.1494
▁slaughter	-11.1494
▁wont	-11.1498
▁col	-11.1503
▁alternative	-11.1508
▁depressed	-11.1508
▁dignity	-11.1508
▁imitation	-11.1508
▁ought	-11.1508
▁museum	-11.1508
▁psychopath	-11.1508
▁tracy	-11.1508
▁estate	-11.1509
▁planning	-11.1509
▁unoriginal	-11.1509
▁glover	-11.151
▁manhattan	-11.1511
▁mode	-11.1511
▁forty	-11.1511
▁emperor	-11.1512
▁chicken	-11.1515
▁wore	-11.1515
▁overrated	-11.1524
▁headed	-11.1525
▁7/10	-11.1526
▁terrorists	-11.1526
▁cd	-11.1527
▁sentence	-11.1527
▁affected	-11.1528
▁displayed	-11.1544
zo	-11.1544
▁recognized	-11.1545
▁dinosaur	-11.1548
▁function	-11.1548
▁nightmares	-11.1548
board	-11.1552
ari	-11.1558
▁tame	-11.1559
▁circle	-11.156
▁advise	-11.1566
▁mat	-11.1568
▁fed	-11.157
ue	-11.1571
sses	-11.1575
▁stronger	-11.1576
▁lift	-11.1579
▁doo	-11.158
▁vast	-11.1582
▁doug	-11.1586
▁aforementioned	-11.1591
▁colonel	-11.1591
▁producing	-11.1591
▁conspiracy	-11.1591
▁shelf	-11.1591
▁mall	-11.1592
▁dutch	-11.1593
▁secretary	-11.1594
▁vegas	-11.1595
▁lawrence	-11.1596
▁strictly	-11.1597
los	-11.1598
▁rabbit	-11.16
▁ny	-11.16
▁labor	-11.1602
▁distracting	-11.1605
▁coherent	-11.1607
log	-11.161
▁fest	-11.1615
▁subplots	-11.1618
second	-11.1618
▁provoking	-11.1625
funny	-11.1628
▁mayor	-11.1633
nk	-11.1635
▁confess	-11.1639
lia	-11.1645
god	-11.1649
lock	-11.1659
▁hung	-11.1664
▁smooth	-11.1667
▁ruins	-11.1674
▁bargain	-11.1675
▁beneath	-11.1675
▁depression	-11.1675
▁population	-11.1675
▁rifle	-11.1675
▁mixture	-11.1675
▁velvet	-11.1675
▁sloppy	-11.1675
▁marty	-11.1678
▁charismatic	-11.1678
▁wallace	-11.168
▁karloff	-11.1681
▁copies	-11.1681
▁darker	-11.1682
▁abilities	-11.1686
▁region	-11.169
▁noted	-11.1695
▁advance	-11.1696
▁ol	-11.1699
▁dire	-11.1705
▁nerd	-11.1705
▁stark	-11.1706
▁carrie	-11.1707
▁portion	-11.1713
ik	-11.1731
▁reel	-11.1737
▁prisoner	-11.1745
▁ears	-11.1746
▁poetic	-11.1751
stars	-11.1751
nny	-11.1753
****	-11.1758
▁captivating	-11.176
▁statue	-11.176
▁campbell	-11.1761
▁illogical	-11.1761
▁venture	-11.1761
▁psychotic	-11.1761
▁mtv	-11.1761
▁mal	-11.1762
▁emphasis	-11.1763
▁philosophical	-11.1763
▁subtlety	-11.1763
▁alter	-11.1764
▁exaggerated	-11.1765
▁communist	-11.1765
▁alike	-11.1766
▁differences	-11.1768
▁agreed	-11.177
▁passes	-11.1774
▁macy	-11.1775
▁highest	-11.1777
▁describes	-11.1783
▁sy	-11.1786
richard	-11.1801
drama	-11.1803
▁fingers	-11.1804
▁executive	-11.1804
handed	-11.1807
much	-11.1808
▁bri	-11.1813
▁si	-11.1819
▁gate	-11.1827
▁inspire	-11.183
▁instant	-11.1834
▁nervous	-11.1846
▁survival	-11.1846
▁troma	-11.1846
▁versus	-11.1846
▁gear	-11.1846
▁ireland	-11.1846
▁grasp	-11.1846
▁flies	-11.1847
▁stellar	-11.1847
▁murray	-11.185
▁rubber	-11.185
▁yellow	-11.1851
▁hollow	-11.1853
▁elephant	-11.1855
▁notes	-11.1865
▁reed	-11.1865
▁crush	-11.1866
▁classical	-11.1866
▁cheek	-11.1869
▁creep	-11.1872
▁fired	-11.1875
never	-11.1886
ben	-11.1904
▁nu	-11.191
▁strikes	-11.1911
▁35	-11.1914
▁coat	-11.1915
▁climb	-11.1915
▁enormous	-11.192
▁divorce	-11.1921
▁dozens	-11.1923
▁unintentional	-11.1928
▁education	-11.1929
▁flood	-11.1932
▁thrill	-11.1933
▁philosophy	-11.1934
▁plausible	-11.1934
nia	-11.1934
▁harder	-11.1934
▁primarily	-11.1934
▁countryside	-11.1934
▁terry	-11.1935
▁eaten	-11.1937
▁immensely	-11.1937
▁brains	-11.1938
▁godfather	-11.1938
▁represent	-11.1941
▁selfish	-11.1942
▁consistently	-11.1942
▁gut	-11.1947
▁staged	-11.1949
▁exposed	-11.1956
▁josh	-11.1956
▁thru	-11.1958
▁alfred	-11.1959
▁painted	-11.196
az	-11.1967
your	-11.197
avoid	-11.1973
james	-11.1974
sp	-11.1977
▁nail	-11.198
▁superhero	-11.198
▁lyrics	-11.1981
sure	-11.1982
▁bla	-11.1988
▁les	-11.1989
▁shake	-11.1991
▁bre	-11.1991
▁nicole	-11.1993
ates	-11.1995
▁masters	-11.2002
▁blatant	-11.2007
▁trees	-11.2009
▁greed	-11.2011
▁recognition	-11.2019
▁synopsis	-11.2019
▁felix	-11.2019
▁popcorn	-11.2019
▁similarities	-11.2021
▁conversations	-11.2023
▁constructed	-11.2025
▁runner	-11.2026
▁reaches	-11.2026
▁dimensional	-11.2028
▁cream	-11.2029
▁cheating	-11.203
▁purchased	-11.2035
▁wagon	-11.2036
▁butler	-11.2039
▁threatening	-11.2045
▁dolls	-11.2046
▁fooled	-11.2049
▁lily	-11.2051
▁sacrifice	-11.2052
yo	-11.2056
talk	-11.2058
▁trashy	-11.2064
▁bela	-11.2066
▁projects	-11.2066
▁warrior	-11.2069
fer	-11.2073
▁politically	-11.2082
read	-11.2085
free	-11.2087
▁subjects	-11.2089
"...	-11.2099
▁legal	-11.21
▁user	-11.2102
▁racial	-11.2104
▁contest	-11.2106
▁adorable	-11.2106
▁challenging	-11.2106
▁coffee	-11.2106
▁excruciating	-11.2106
▁frustration	-11.2106
▁pattern	-11.2106
▁riveting	-11.2106
▁agenda	-11.2106
▁blew	-11.2107
▁bullock	-11.2107
▁proceedings	-11.2107
▁edgar	-11.2107
▁doors	-11.2109
▁kubrick	-11.2109
many	-11.2111
▁pride	-11.2114
▁cinderella	-11.2117
▁rita	-11.2118
▁map	-11.2121
▁explored	-11.2128
▁inform	-11.2129
▁milk	-11.213
▁awake	-11.2131
nn	-11.2136
▁rage	-11.2138
▁tail	-11.2143
▁gus	-11.2144
▁dynamic	-11.2155
cle	-11.2155
shi	-11.2156
▁tracks	-11.2156
▁aging	-11.2162
rent	-11.217
▁mute	-11.2181
▁bean	-11.2181
▁frequent	-11.2183
ory	-11.2184
▁areas	-11.2186
▁spoke	-11.2192
▁marks	-11.2193
▁cu	-11.2193
▁label	-11.2193
▁arrogant	-11.2195
▁convoluted	-11.2195
▁stilted	-11.2195
▁golf	-11.2195
▁painting	-11.2196
▁marshall	-11.2197
▁satisfied	-11.2197
▁twelve	-11.2198
▁considerable	-11.2202
▁reduced	-11.2202
▁psychic	-11.2204
▁disappeared	-11.2208
▁borrowed	-11.2208
▁stinks	-11.221
▁doom	-11.221
▁ki	-11.2214
▁walt	-11.2215
▁package	-11.2221
▁loads	-11.2223
lic	-11.2227
▁dancers	-11.2227
▁influenced	-11.223
char	-11.2233
▁doc	-11.2236
sorry	-11.2239
since	-11.224
▁contained	-11.2241
ara	-11.2242
▁switch	-11.2246
▁holy	-11.2247
▁suggested	-11.2251
tte	-11.2263
place	-11.2265
▁ruth	-11.2268
▁trans	-11.2272
▁dirt	-11.2277
ress	-11.2279
▁isolated	-11.2284
▁curtis	-11.2284
▁smell	-11.2285
▁objective	-11.2285
▁edition	-11.2286
▁eastern	-11.2291
▁foul	-11.2291
▁suitable	-11.2293
▁limits	-11.2296
▁keith	-11.2298
▁doomed	-11.2299
▁exceptionally	-11.2305
▁sticks	-11.2307
▁cheer	-11.2308
▁demand	-11.231
▁cake	-11.2314
▁kat	-11.2323
ano	-11.2325
cal	-11.2327
again	-11.2328
www	-11.2331
▁comfort	-11.2332
▁rolled	-11.2333
cool	-11.2335
last	-11.2336
▁developing	-11.2337
▁scarecrow	-11.2343
-1	-11.2348
▁careers	-11.2353
▁aid	-11.2353
▁scratch	-11.2361
▁belong	-11.2361
▁wi	-11.2365
used	-11.2368
ual	-11.2372
▁cinematographer	-11.2374
▁pitiful	-11.2374
▁judging	-11.2374
▁banned	-11.2374
▁awe	-11.238
▁hop	-11.239
▁bust	-11.2393
▁mag	-11.2396
▁buster	-11.2401
hal	-11.2403
▁witnessed	-11.2403
▁imagined	-11.2405
▁lar	-11.2409
▁parties	-11.2411
▁las	-11.2412
hol	-11.2416
▁pete	-11.2418
▁recorded	-11.2418
directed	-11.2423
▁official	-11.2424
▁closet	-11.2425
makers	-11.2427
▁useful	-11.2428
without	-11.2428
▁1)	-11.2441
home	-11.2447
▁collect	-11.2448
▁trailers	-11.2452
▁passionate	-11.2455
.(	-11.2456
▁pun	-11.2456
▁senseless	-11.2458
ished	-11.246
▁jordan	-11.2465
▁nostalgia	-11.2465
▁aussie	-11.2465
▁huston	-11.2465
▁tramp	-11.2466
▁ignorant	-11.2466
▁airport	-11.2466
▁progresses	-11.2468
▁cab	-11.2469
▁dam	-11.247
▁shirley	-11.247
▁sailor	-11.2471
▁claire	-11.2472
▁mankind	-11.2472
▁secondary	-11.2473
▁unfolds	-11.2473
▁bullets	-11.2482
ip	-11.2482
lost	-11.2483
▁affect	-11.2484
nice	-11.2489
▁decisions	-11.2491
▁mon	-11.2492
▁enters	-11.2494
▁method	-11.2496
▁brutally	-11.25
rian	-11.2504
▁lone	-11.2507
evil	-11.251
▁recommendation	-11.2511
probably	-11.2512
▁historically	-11.2513
▁covers	-11.2514
▁sheen	-11.2516
▁bridges	-11.2524
stone	-11.2525
▁nomination	-11.2525
▁relation	-11.2525
▁muppet	-11.2529
ston	-11.2529
▁myers	-11.2529
▁adequate	-11.2545
ical	-11.2549
▁donna	-11.2554
▁irrelevant	-11.2557
▁definition	-11.2557
▁predecessor	-11.2557
▁advertising	-11.2557
▁rotten	-11.2557
▁kitty	-11.2557
▁planned	-11.2558
▁morris	-11.2558
▁safety	-11.2559
▁edit	-11.2559
▁perry	-11.256
▁empire	-11.2561
▁priceless	-11.2561
▁keen	-11.2561
▁harvey	-11.2562
▁passable	-11.2563
▁presumably	-11.2565
▁9/10	-11.2567
▁similarly	-11.2568
eu	-11.2569
▁deny	-11.2574
▁smaller	-11.2578
▁signs	-11.2579
▁models	-11.2588
▁guessed	-11.2589
▁survivors	-11.2592
▁blond	-11.2594
actually	-11.2594
▁bite	-11.2596
▁port	-11.2599
ada	-11.2603
word	-11.2603
moving	-11.2605
unless	-11.2611
▁dame	-11.2627
▁addict	-11.2632
esque	-11.2638
every	-11.264
▁wealth	-11.2642
mann	-11.2645
▁asylum	-11.265
▁crucial	-11.265
▁simplistic	-11.265
▁intimate	-11.265
▁spock	-11.265
▁primary	-11.265
▁nicholson	-11.265
▁feast	-11.265
▁nostalgic	-11.2651
▁ned	-11.2655
▁teaches	-11.2655
000	-11.2659
▁yawn	-11.266
▁trained	-11.266
▁corman	-11.2661
comprehensible	-11.2666
▁midnight	-11.267
▁relatives	-11.2672
▁secrets	-11.268
▁pushing	-11.2686
▁offend	-11.2689
▁pretending	-11.2689
super	-11.2699
pping	-11.27
▁wound	-11.2705
wait	-11.2706
▁suited	-11.2709
ters	-11.2715
▁builds	-11.2717
elli	-11.272
▁whit	-11.2732
▁prop	-11.2733
▁stevens	-11.2735
▁mars	-11.2741
▁grotesque	-11.2743
▁thompson	-11.2743
▁watson	-11.2743
▁vocal	-11.2743
▁blunt	-11.2743
▁garbo	-11.2745
▁swimming	-11.2747
▁mason	-11.2747
▁mistress	-11.2748
▁warmth	-11.275
▁alert	-11.2752
▁sullivan	-11.2752
ini	-11.2764
▁survived	-11.2787
check	-11.2793
▁discuss	-11.2795
mate	-11.2805
▁boxing	-11.2809
▁convincingly	-11.2809
▁spread	-11.2817
▁spacey	-11.2821
▁define	-11.2823
▁eager	-11.2826
▁maid	-11.2836
▁pr	-11.2837
▁equipment	-11.2837
▁inferior	-11.2837
▁campaign	-11.2837
▁globe	-11.2837
▁skull	-11.2837
▁swallow	-11.2837
▁remarkably	-11.2838
▁seventies	-11.2838
▁1995	-11.2838
▁roommate	-11.2839
▁downhill	-11.284
▁composed	-11.2841
▁acid	-11.2842
▁frankie	-11.2844
▁davies	-11.2845
mark	-11.2847
▁furthermore	-11.2848
▁boris	-11.285
▁adams	-11.285
▁yelling	-11.2851
▁ease	-11.2854
▁pig	-11.2856
▁conceived	-11.2859
30	-11.286
name	-11.2863
▁ski	-11.2864
▁inane	-11.2867
these	-11.2867
▁expressed	-11.2871
▁romp	-11.2876
lip	-11.2887
rack	-11.2888
▁lately	-11.2889
▁rope	-11.2889
▁iraq	-11.2894
ola	-11.2895
▁occasion	-11.2904
15	-11.2906
▁potentially	-11.2909
▁walls	-11.291
▁cue	-11.291
ep	-11.291
▁slave	-11.2914
▁pursue	-11.2917
▁consistent	-11.2922
▁earn	-11.2923
▁fields	-11.2927
dark	-11.2927
regarding	-11.2929
20	-11.2932
▁phony	-11.2933
▁responsibility	-11.2933
▁spiral	-11.2933
▁understated	-11.2933
▁weather	-11.2933
▁debate	-11.2933
▁romero	-11.2933
▁1999	-11.2934
▁mistaken	-11.2935
▁elegant	-11.2936
▁cassavetes	-11.2936
▁defense	-11.2936
▁futuristic	-11.2937
▁charlotte	-11.2939
▁shining	-11.2941
▁ironically	-11.2943
▁scope	-11.2944
▁greatness	-11.2949
▁topless	-11.2953
▁auto	-11.2954
▁nuts	-11.2956
▁proceeds	-11.2956
▁overacting	-11.2956
actors	-11.2959
bit	-11.297
▁remained	-11.297
▁exit	-11.297
▁programme	-11.2971
▁moody	-11.2977
▁desired	-11.2978
▁ingredients	-11.2982
▁sal	-11.2992
gue	-11.2997
▁transition	-11.3005
▁sara	-11.3008
▁slice	-11.3013
▁rebel	-11.3017
▁sentiment	-11.3017
▁astonishing	-11.3017
▁nod	-11.3028
▁glorious	-11.3028
▁jaw	-11.3028
▁astounding	-11.3029
▁bronson	-11.3029
▁desperation	-11.3029
▁gadget	-11.3029
▁incompetent	-11.3029
▁narrow	-11.3029
▁valuable	-11.3029
▁garfield	-11.3029
▁alcoholic	-11.303
▁landing	-11.303
▁bonus	-11.3031
▁traffic	-11.3032
▁samurai	-11.3032
▁alongside	-11.3034
▁distant	-11.3035
▁groups	-11.3036
▁underly	-11.3038
▁cheated	-11.3038
▁wandering	-11.3044
▁clock	-11.3046
▁lowest	-11.3046
▁uneven	-11.3047
▁checked	-11.3057
▁alley	-11.3067
rise	-11.3068
▁honesty	-11.3071
▁tripe	-11.3073
▁sons	-11.3077
cia	-11.3083
▁contribute	-11.3097
cro	-11.3097
▁farmer	-11.3105
▁chances	-11.311
▁graham	-11.3119
stage	-11.3119
▁puppets	-11.312
▁circus	-11.3126
▁griffith	-11.3126
▁nbc	-11.3126
▁obtain	-11.3126
▁glance	-11.3126
▁unaware	-11.3126
▁flip	-11.3127
▁composition	-11.3127
▁blackmail	-11.3128
▁betrayal	-11.3128
▁bruno	-11.3128
▁robinson	-11.3129
▁capturing	-11.3129
▁turkish	-11.313
▁formulaic	-11.313
▁3000	-11.313
▁exorcist	-11.3131
▁barrel	-11.3135
▁experimental	-11.3136
▁clone	-11.3139
▁centre	-11.314
▁fist	-11.3145
▁waited	-11.3147
▁gifted	-11.3147
▁hum	-11.3152
▁gangsters	-11.3153
▁raises	-11.3157
▁partly	-11.3157
▁saga	-11.316
lly	-11.3162
glo	-11.3165
▁lock	-11.3166
▁hilariously	-11.3169
▁filler	-11.317
▁unreal	-11.3171
headed	-11.3174
eye	-11.3175
ama	-11.3175
dge	-11.3176
▁ties	-11.3183
▁blowing	-11.3192
▁wished	-11.3197
▁montage	-11.3204
▁progress	-11.3205
gone	-11.3206
does	-11.3208
▁financial	-11.3212
faced	-11.3217
▁lang	-11.3222
▁scripts	-11.3222
▁behaviour	-11.3224
▁corporate	-11.3224
▁taught	-11.3224
▁wacky	-11.3224
▁absent	-11.3224
▁biography	-11.3224
▁sappy	-11.3224
▁tyler	-11.3225
▁banal	-11.3225
▁2007	-11.3226
▁petty	-11.3226
▁turner	-11.3227
▁snipes	-11.3228
▁deliberately	-11.323
▁conservative	-11.323
ium	-11.3233
▁crisp	-11.3245
▁rising	-11.3246
▁shaw	-11.3248
hara	-11.3265
worth	-11.3267
▁neighbors	-11.327
del	-11.3273
▁tri	-11.3275
▁chuckle	-11.3277
▁sale	-11.3278
box	-11.3283
aging	-11.3284
▁borrow	-11.3288
▁stink	-11.329
▁moron	-11.329
joe	-11.3293
true	-11.3296
ski	-11.3301
▁enhance	-11.3308
▁clip	-11.3309
cent	-11.3312
ration	-11.3316
climactic	-11.3322
▁pays	-11.3322
▁euro	-11.3322
▁compliment	-11.3322
▁despair	-11.3323
▁enthusiasm	-11.3323
▁mysteries	-11.3323
▁distribution	-11.3323
▁misery	-11.3323
▁samuel	-11.3323
▁revolutionary	-11.3324
ink	-11.3325
▁christie	-11.3326
▁2/10	-11.3327
▁heartbreaking	-11.3328
▁glasses	-11.3329
▁dating	-11.333
▁illness	-11.333
▁molly	-11.3332
▁dim	-11.3332
▁leigh	-11.3333
▁focusing	-11.3336
▁hamlet	-11.3336
▁floating	-11.3337
▁wig	-11.3342
▁understandable	-11.3349
▁engineer	-11.3351
tim	-11.3354
▁drawing	-11.3355
▁clueless	-11.3356
pan	-11.336
▁outfit	-11.3363
▁catchy	-11.3365
ane	-11.3368
▁pray	-11.337
▁movements	-11.3371
ay	-11.3374
▁disappear	-11.3376
water	-11.3378
teen	-11.3382
▁ah	-11.3383
▁heap	-11.3387
▁ph	-11.3394
▁ww	-11.3396
▁cleverly	-11.3396
col	-11.3398
▁stress	-11.34
▁wonders	-11.3405
▁handed	-11.3407
tech	-11.3408
▁sho	-11.3415
▁overwhelming	-11.3416
▁address	-11.3419
▁guitar	-11.3421
▁marvel	-11.3422
▁assigned	-11.3423
▁carradine	-11.3423
▁integrity	-11.3423
▁minimum	-11.3423
▁mundane	-11.3423
▁patience	-11.3423
▁pursuit	-11.3423
▁tunnel	-11.3423
▁soccer	-11.3423
▁bumbling	-11.3423
▁loneliness	-11.3423
▁mayhem	-11.3423
maker	-11.3423
▁orange	-11.3423
▁miniseries	-11.3424
▁composer	-11.3424
▁cruelty	-11.3425
▁unhappy	-11.3425
▁branagh	-11.3426
win	-11.343
▁pee	-11.3432
▁maniac	-11.3433
▁hints	-11.3434
▁claude	-11.3436
▁vaguely	-11.3439
▁surfing	-11.3441
▁toys	-11.3441
▁spa	-11.3445
▁pour	-11.3453
-13	-11.3456
▁losers	-11.346
think	-11.3464
mill	-11.3471
▁guests	-11.3471
game	-11.3472
▁rave	-11.3474
▁huh	-11.3477
▁bowl	-11.3477
▁span	-11.3478
ett	-11.3481
▁prisoners	-11.3487
▁limit	-11.3496
▁prey	-11.3497
▁fri	-11.3499
uk	-11.3504
▁passengers	-11.3509
▁crawl	-11.3511
▁amounts	-11.3512
▁excessive	-11.3513
sound	-11.3517
▁dud	-11.352
▁crawford	-11.3524
▁judgment	-11.3524
▁ritual	-11.3524
▁wardrobe	-11.3524
▁widmark	-11.3524
▁fruit	-11.3524
▁replace	-11.3524
▁introduces	-11.3524
▁appreciation	-11.3524
▁cancer	-11.3524
▁egyptian	-11.3525
▁sixties	-11.3525
▁hokey	-11.3525
▁straightforward	-11.3525
▁passage	-11.3527
▁educational	-11.3527
▁'70	-11.3528
▁cannon	-11.3528
▁tomorrow	-11.3529
▁earl	-11.3529
▁patients	-11.3529
▁enterprise	-11.3529
▁masses	-11.3531
▁ti	-11.3532
▁depicting	-11.3536
▁belt	-11.3536
▁spade	-11.3538
▁earned	-11.354
▁fisher	-11.3541
▁sincere	-11.355
▁leo	-11.3552
blood	-11.3558
nate	-11.3562
gged	-11.3567
power	-11.3567
everything	-11.3581
▁letters	-11.3581
▁forms	-11.3586
thank	-11.3587
▁redeem	-11.3589
▁faster	-11.359
▁kicking	-11.3597
▁musician	-11.3599
▁net	-11.3601
▁threaten	-11.3606
▁uh	-11.3606
▁suspend	-11.3611
▁gall	-11.3614
▁chicks	-11.3617
▁citizen	-11.3618
▁tire	-11.3621
▁delicate	-11.3626
▁equivalent	-11.3626
▁miyazaki	-11.3626
▁paranoia	-11.3626
▁travesty	-11.3626
▁angst	-11.3626
▁punishment	-11.3626
▁fascinated	-11.3628
▁2003	-11.363
▁hopeless	-11.3631
▁rot	-11.3632
▁bourne	-11.3636
▁workers	-11.3637
▁minus	-11.3638
mb	-11.3647
▁closest	-11.3647
cc	-11.3651
▁7.	-11.3653
▁avoided	-11.3653
.......	-11.3656
▁scarlett	-11.3657
▁roller	-11.3661
▁armed	-11.3663
▁breed	-11.3664
▁careful	-11.367
ib	-11.3672
▁awhile	-11.3676
▁er	-11.3677
▁kicked	-11.3678
▁expose	-11.3681
brazil	-11.3683
particularly	-11.3684
yeah	-11.3684
▁unfold	-11.3685
forward	-11.3685
▁tasteless	-11.3689
▁musicians	-11.3689
▁wildly	-11.369
▁dev	-11.3694
ena	-11.3696
▁lips	-11.3696
▁kin	-11.37
wow	-11.3701
▁alec	-11.3707
▁satisfy	-11.3709
▁spit	-11.3713
▁opinions	-11.3716
▁premiere	-11.3717
▁casual	-11.3717
▁unfair	-11.3719
▁habit	-11.372
▁origin	-11.3721
▁disgrace	-11.3723
▁modest	-11.3723
▁alcohol	-11.3727
aw	-11.3728
▁access	-11.3729
▁audition	-11.3729
▁august	-11.3729
▁exploration	-11.3729
▁fantasies	-11.3729
▁inconsistent	-11.3729
▁montgomery	-11.3729
▁conrad	-11.3729
▁venice	-11.3729
▁smack	-11.3729
▁maggie	-11.3729
▁improvement	-11.373
▁karate	-11.3731
▁conviction	-11.3731
▁roof	-11.3731
▁muddled	-11.3732
▁addiction	-11.3732
▁authority	-11.3732
▁fever	-11.3732
▁jackass	-11.3733
▁confrontation	-11.3733
▁retired	-11.3734
▁couch	-11.3738
▁chess	-11.3739
▁messed	-11.374
▁washed	-11.3743
bin	-11.3746
cher	-11.375
▁invited	-11.375
anne	-11.3757
▁realm	-11.3757
▁grip	-11.376
▁ensues	-11.3761
being	-11.3765
▁hooker	-11.3769
▁widely	-11.377
▁sur	-11.3772
▁wishing	-11.3775
▁staring	-11.3777
anna	-11.3779
wife	-11.3785
george	-11.3788
▁flag	-11.3789
peter	-11.3795
▁agrees	-11.3796
▁gather	-11.38
▁dose	-11.3801
zombie	-11.3803
▁ren	-11.3806
▁annie	-11.3808
▁encourage	-11.381
zy	-11.3811
▁chew	-11.3815
▁distinct	-11.3818
▁puzzle	-11.3818
▁mentioning	-11.3827
▁eli	-11.3828
▁owe	-11.3828
▁bike	-11.383
▁buildings	-11.383
▁swim	-11.3833
▁creativity	-11.3833
▁nonsensical	-11.3833
▁sublime	-11.3833
▁suffice	-11.3833
▁wisdom	-11.3833
▁destiny	-11.3833
▁embarrassment	-11.3834
▁possibilities	-11.3835
▁property	-11.3835
▁corruption	-11.3835
▁rider	-11.3838
▁babies	-11.3838
▁spaghetti	-11.3838
▁barker	-11.3839
lton	-11.384
▁cannibal	-11.3841
▁mil	-11.3846
▁fur	-11.3846
▁polished	-11.3847
cop	-11.3849
▁odds	-11.385
▁vera	-11.385
▁businessman	-11.3853
▁mountains	-11.3862
▁babe	-11.3864
form	-11.3864
▁thugs	-11.3865
▁realised	-11.3869
zer	-11.3873
ular	-11.3877
child	-11.3893
bre	-11.3896
▁lands	-11.3896
▁tr	-11.3897
almost	-11.39
▁hick	-11.3913
▁catche	-11.3918
▁reeves	-11.392
▁lasted	-11.3922
▁ali	-11.3925
ically	-11.3938
▁global	-11.3938
▁describing	-11.3938
▁testament	-11.3938
▁quaid	-11.3939
▁unsettling	-11.3939
▁candidate	-11.3939
▁hartley	-11.3939
▁tiresome	-11.3939
▁bedroom	-11.3939
fight	-11.394
▁sunny	-11.394
▁household	-11.394
▁vein	-11.3941
▁2004	-11.3942
▁arguably	-11.3942
▁ji	-11.3942
▁catching	-11.3943
▁aaron	-11.3945
▁outline	-11.3945
▁tenant	-11.3946
▁twilight	-11.3946
▁miracle	-11.3947
▁poem	-11.3948
▁greedy	-11.3948
non	-11.395
▁sensational	-11.3953
hl	-11.3954
▁quotes	-11.3961
▁drops	-11.3974
▁anyways	-11.3978
▁kay	-11.398
▁meg	-11.3986
▁trivial	-11.3986
▁comedians	-11.3987
kill	-11.3987
▁hank	-11.3999
trip	-11.3999
▁damned	-11.4
▁bro	-11.4008
▁attend	-11.401
▁prom	-11.4011
ong	-11.4025
▁2"	-11.4026
▁chased	-11.4027
▁homeless	-11.4028
▁remove	-11.403
▁raj	-11.4032
▁alternate	-11.4033
▁conditions	-11.4035
▁wo	-11.4035
▁vulgar	-11.4044
▁transcend	-11.4045
▁astaire	-11.4045
▁domestic	-11.4045
▁florida	-11.4045
▁fought	-11.4045
▁dreary	-11.4045
▁jeffrey	-11.4045
▁meryl	-11.4045
▁kyle	-11.4045
▁compelled	-11.4045
▁chainsaw	-11.4045
▁bettie	-11.4045
▁civilization	-11.4045
▁construction	-11.4045
▁shaking	-11.4046
▁contribution	-11.4046
▁uncover	-11.4046
▁representation	-11.4047
▁celebrity	-11.4048
▁noises	-11.4048
met	-11.4048
sci	-11.405
▁popularity	-11.405
▁invasion	-11.4051
▁witnesses	-11.4052
▁spain	-11.4052
▁sung	-11.4054
▁candle	-11.4055
▁namely	-11.4059
fall	-11.4061
open	-11.4066
▁stroke	-11.4067
▁showdown	-11.4073
▁*****	-11.4077
▁pla	-11.4085
▁promised	-11.4086
ering	-11.4092
▁generations	-11.4093
nar	-11.4101
▁eats	-11.4105
length	-11.4107
production	-11.4108
▁coup	-11.4109
▁severe	-11.411
rich	-11.4112
▁secondly	-11.4117
▁diver	-11.4119
▁shell	-11.4121
strange	-11.4122
nes	-11.4123
▁waves	-11.413
▁hoot	-11.4135
▁sweat	-11.4135
▁introduce	-11.4139
▁mighty	-11.414
▁rhythm	-11.4152
▁activities	-11.4152
▁rude	-11.4155
▁plight	-11.4155
▁selection	-11.4155
▁exposure	-11.4156
▁vulnerable	-11.4157
▁complexity	-11.4157
▁weakest	-11.416
▁hungry	-11.4161
▁fra	-11.4165
▁spirited	-11.4166
▁wounded	-11.4169
▁winters	-11.4171
▁treats	-11.4171
▁bands	-11.4172
▁buffs	-11.4175
▁um	-11.4177
earth	-11.4177
cap	-11.4178
▁directs	-11.418
▁shore	-11.418
▁loy	-11.418
▁claimed	-11.4188
▁repeating	-11.419
▁graduate	-11.4192
bert	-11.4192
▁complaining	-11.4192
▁jumped	-11.4201
full	-11.4203
ken	-11.4203
▁strangers	-11.4216
▁launch	-11.4218
▁positively	-11.4228
▁photos	-11.4238
▁rocky	-11.424
▁polish	-11.4247
▁require	-11.4249
▁schlock	-11.4253
ened	-11.4256
▁joel	-11.4258
nick	-11.4259
▁arab	-11.4259
▁arrival	-11.4261
▁grudge	-11.4261
▁simplicity	-11.4261
▁vengeance	-11.4261
▁wretched	-11.4261
▁accompany	-11.4261
▁amazon	-11.4261
▁niece	-11.4261
▁humble	-11.4261
▁historic	-11.4261
▁kapoor	-11.4261
▁craven	-11.4262
▁francisco	-11.4262
▁edgy	-11.4262
▁resident	-11.4264
▁assassination	-11.4264
▁timothy	-11.4266
say	-11.4267
▁choreographed	-11.4269
▁skeleton	-11.4269
▁strongest	-11.4272
▁standout	-11.4274
▁commander	-11.4274
▁amused	-11.4274
luc	-11.4275
sam	-11.4276
▁sandy	-11.4277
▁arrived	-11.4284
itz	-11.4285
dance	-11.4287
▁performs	-11.4289
▁rooms	-11.4301
▁channels	-11.4302
▁accurately	-11.4303
▁abused	-11.431
▁likewise	-11.4312
";	-11.4318
william	-11.4326
▁someday	-11.4329
four	-11.4332
▁para	-11.4333
▁din	-11.4334
▁sucker	-11.434
▁wal	-11.4347
▁drove	-11.4349
▁shout	-11.4354
▁adapt	-11.4354
ius	-11.4354
▁seeks	-11.4355
▁wil	-11.4361
▁drift	-11.4365
▁exhibit	-11.4368
▁communicate	-11.4371
▁industrial	-11.4371
▁literature	-11.4371
▁manipulative	-11.4371
▁preposterous	-11.4371
▁sarandon	-11.4371
▁technicolor	-11.4371
▁variation	-11.4371
▁bernard	-11.4371
▁clash	-11.4371
▁drake	-11.4371
▁ingenious	-11.4371
▁session	-11.4371
▁facing	-11.4371
anti	-11.4371
▁june	-11.4372
▁frog	-11.4373
▁kingdom	-11.4373
▁hostage	-11.4373
▁grinch	-11.4373
▁nyc	-11.4375
▁gimmick	-11.4378
▁crocodile	-11.4378
▁raymond	-11.4378
▁twins	-11.438
▁marion	-11.4382
▁patricia	-11.4383
▁hopelessly	-11.4383
▁faults	-11.4384
▁insightful	-11.4386
▁represented	-11.4389
▁worn	-11.4391
▁helpless	-11.4393
▁citizens	-11.4399
▁disliked	-11.4405
▁overlook	-11.4414
▁capital	-11.4421
laughably	-11.4423
▁internal	-11.4423
▁worker	-11.4425
foot	-11.4432
hollywood	-11.4437
tel	-11.4454
▁drum	-11.4455
hell	-11.4456
▁electric	-11.4458
▁setup	-11.4459
▁roth	-11.446
▁backgrounds	-11.4467
▁artificial	-11.447
▁jacob	-11.4471
bon	-11.4471
▁sympathize	-11.4472
thing	-11.4473
▁pam	-11.4476
▁conclude	-11.4477
▁ranch	-11.448
▁columbia	-11.4482
▁exquisite	-11.4482
▁insipid	-11.4482
▁lackluster	-11.4482
▁profanity	-11.4482
▁unravel	-11.4482
▁debt	-11.4482
▁beware	-11.4482
▁rational	-11.4482
▁stack	-11.4483
▁diaz	-11.4483
▁hates	-11.4484
▁retain	-11.4485
▁sap	-11.4487
▁champion	-11.4487
▁questionable	-11.4493
▁conan	-11.4494
▁attitudes	-11.4494
body	-11.4495
▁disco	-11.4495
tail	-11.4496
▁berlin	-11.4497
ala	-11.4498
pass	-11.4504
▁neo	-11.4504
▁incorrect	-11.4505
▁refused	-11.4505
▁darn	-11.4506
▁defined	-11.4507
▁hart	-11.4513
era	-11.4513
▁correctly	-11.4518
▁objects	-11.4521
▁th	-11.4525
▁promises	-11.4526
beat	-11.4527
uel	-11.4529
▁stra	-11.4543
provoking	-11.4549
19	-11.4553
iff	-11.4558
▁motivations	-11.4564
▁drinks	-11.4569
▁promote	-11.457
killer	-11.457
▁....	-11.4572
▁tra	-11.4584
▁shoulders	-11.4586
rely	-11.4586
▁antonio	-11.4594
▁bounty	-11.4594
▁cagney	-11.4594
▁investigating	-11.4594
▁suspicion	-11.4594
▁ritter	-11.4594
▁demented	-11.4594
▁silliness	-11.4594
▁martha	-11.4594
▁wives	-11.4595
▁tastes	-11.4595
▁jacket	-11.4595
▁elevator	-11.4595
▁riddle	-11.4595
▁niro	-11.4596
▁continually	-11.4597
▁loop	-11.4597
▁natalie	-11.4597
▁cyborg	-11.4598
▁stranded	-11.4599
▁gere	-11.4601
▁marine	-11.4604
live	-11.4605
▁cloud	-11.4606
▁helm	-11.4608
▁intend	-11.4609
▁lure	-11.4609
▁hippie	-11.4613
▁greg	-11.4614
▁advanced	-11.4615
▁matches	-11.4616
▁bitch	-11.462
five	-11.4625
▁doctors	-11.4625
happy	-11.4627
▁challenged	-11.4628
via	-11.4628
▁remarks	-11.463
▁sits	-11.463
▁rats	-11.4631
▁justin	-11.4634
▁relations	-11.4634
rio	-11.4636
▁orders	-11.4646
▁randomly	-11.465
▁lau	-11.4663
▁robots	-11.4664
▁compensate	-11.4665
▁cary	-11.4667
▁cope	-11.4669
▁discovering	-11.4672
▁disgust	-11.4673
pat	-11.4676
rou	-11.4678
▁virginia	-11.468
▁arrest	-11.4694
▁counts	-11.4695
▁adore	-11.4695
▁institution	-11.4708
▁brooklyn	-11.4708
▁literary	-11.4708
▁unexplained	-11.4708
▁simmons	-11.4708
▁vomit	-11.4708
▁april	-11.4708
▁newcomer	-11.4708
▁surgery	-11.4708
▁exposition	-11.4708
▁drill	-11.4708
▁unpredictable	-11.4709
▁stallone	-11.4709
gun	-11.4709
▁visible	-11.4709
▁stale	-11.471
▁parade	-11.4711
▁spectacle	-11.4711
▁choppy	-11.4711
▁underworld	-11.4712
ade	-11.4712
▁polanski	-11.4712
▁cities	-11.4712
▁gentleman	-11.4712
▁shootout	-11.4715
▁dresses	-11.4715
▁interactions	-11.4717
gle	-11.4717
▁ethnic	-11.4717
▁crashes	-11.4718
▁intentionally	-11.4718
▁located	-11.4719
▁genres	-11.472
▁crazed	-11.472
▁ellen	-11.4723
▁edie	-11.4724
▁pound	-11.4724
▁balls	-11.4727
bul	-11.473
▁complaints	-11.473
bla	-11.4731
▁leap	-11.4734
add	-11.4737
▁99	-11.4738
til	-11.4746
▁boxer	-11.4752
▁warriors	-11.476
▁signed	-11.4764
▁surf	-11.4766
▁marketing	-11.4771
ula	-11.4772
▁resulting	-11.4773
city	-11.4781
young	-11.4781
▁ape	-11.4786
▁haunt	-11.4788
▁sometime	-11.4795
▁rates	-11.4801
self	-11.4801
▁dismiss	-11.4809
▁completed	-11.4813
▁heading	-11.4813
▁deranged	-11.4823
▁miike	-11.4823
▁seldom	-11.4823
▁shoddy	-11.4823
▁stunned	-11.4823
▁syndrome	-11.4823
▁devito	-11.4823
▁dilemma	-11.4823
▁triangle	-11.4823
▁distress	-11.4823
▁ignorance	-11.4823
▁giggle	-11.4823
▁pimp	-11.4824
lim	-11.4824
▁marked	-11.4824
▁1997	-11.4824
▁dreck	-11.4824
▁harold	-11.4824
▁simultaneously	-11.4824
▁minister	-11.4824
▁deaf	-11.4825
▁busey	-11.4825
▁tacky	-11.4826
▁snl	-11.4826
▁prequel	-11.4827
▁beatty	-11.4827
▁chat	-11.483
▁elvira	-11.4831
▁unlikeable	-11.4832
▁stream	-11.4832
▁wizard	-11.4835
▁leno	-11.4836
▁ian	-11.4838
▁receives	-11.484
▁meal	-11.484
▁disappears	-11.4841
ub	-11.4843
▁generated	-11.4844
▁creator	-11.4847
▁sang	-11.4847
▁loaded	-11.4849
▁illusion	-11.4854
▁za	-11.4856
▁lib	-11.4868
▁spirits	-11.4875
esh	-11.4877
loud	-11.488
hole	-11.488
▁peck	-11.4881
▁chills	-11.4885
lit	-11.4886
▁chap	-11.4887
▁employ	-11.4888
▁sounding	-11.4888
▁tourist	-11.4893
family	-11.4894
lain	-11.4894
twist	-11.4894
monster	-11.4895
nce	-11.4896
chris	-11.4897
cor	-11.4899
shoot	-11.4903
▁app	-11.4904
▁relax	-11.4904
▁scores	-11.4906
▁brit	-11.4914
rob	-11.4915
▁designer	-11.4917
▁abandon	-11.4924
▁recruit	-11.4925
bing	-11.4926
wan	-11.4935
▁hawk	-11.4936
▁insanity	-11.4939
▁accuracy	-11.4939
▁attorney	-11.4939
▁clerk	-11.4939
▁fascination	-11.4939
▁grief	-11.4939
▁morbid	-11.4939
▁muscle	-11.4939
▁paxton	-11.4939
▁primitive	-11.4939
▁rooney	-11.4939
▁voight	-11.4939
▁despise	-11.4939
▁cigarette	-11.4939
▁protest	-11.494
▁jenny	-11.494
▁eternal	-11.494
▁heartwarming	-11.494
▁referred	-11.494
▁descent	-11.494
▁widescreen	-11.4941
kind	-11.4941
▁steady	-11.4942
▁exploit	-11.4947
▁pops	-11.4947
▁'80	-11.4947
▁jesse	-11.4948
▁playboy	-11.495
▁severely	-11.4952
▁shift	-11.4954
▁realizing	-11.4954
▁overlong	-11.4957
▁mormon	-11.4957
▁dropping	-11.4961
post	-11.4963
▁tur	-11.4967
dog	-11.4967
▁behold	-11.4968
▁tooth	-11.497
▁lengthy	-11.4972
▁appropriately	-11.4972
bling	-11.4974
▁israel	-11.4978
▁unexpectedly	-11.4979
▁prot	-11.4982
▁spine	-11.4983
jean	-11.4984
▁rear	-11.4986
ifying	-11.4986
▁carey	-11.499
4)	-11.4992
▁5.	-11.4994
▁anchor	-11.4996
▁shed	-11.5
▁gems	-11.5002
▁evolution	-11.5003
▁valid	-11.5009
perfect	-11.5011
three	-11.5012
matic	-11.5016
▁hans	-11.5021
▁juliet	-11.5022
script	-11.5025
▁sink	-11.5026
12	-11.5026
▁dil	-11.5028
poor	-11.503
▁hunters	-11.503
▁crossing	-11.5035
▁possess	-11.5038
▁beliefs	-11.5043
▁mod	-11.505
▁purposes	-11.5051
bed	-11.5054
▁corporation	-11.5057
▁costello	-11.5057
▁dylan	-11.5057
▁robbins	-11.5057
▁surviving	-11.5057
▁northern	-11.5057
▁faint	-11.5057
▁kidnapping	-11.5057
▁fluid	-11.5057
▁bunny	-11.5057
▁farrell	-11.5058
▁lip	-11.5059
along	-11.5059
oz	-11.506
▁2002	-11.5061
each	-11.5062
▁monty	-11.5062
▁harmless	-11.5063
▁shoulder	-11.5065
▁restored	-11.5066
▁hyde	-11.5068
▁gender	-11.5072
▁cookie	-11.5073
▁lively	-11.5073
▁vince	-11.5073
▁boo	-11.5076
▁bach	-11.5078
sex	-11.5078
▁shouting	-11.5079
▁respond	-11.508
▁nicola	-11.5081
▁wu	-11.5083
▁chapter	-11.5084
▁screwed	-11.5084
▁symbolic	-11.5085
▁dances	-11.5087
▁leon	-11.5092
▁vol	-11.5097
tain	-11.5108
ology	-11.511
space	-11.5112
▁sums	-11.5124
bri	-11.5125
▁aids	-11.5126
▁23	-11.5126
▁pad	-11.5127
typical	-11.5129
writing	-11.5131
▁resemble	-11.5135
▁bones	-11.5137
▁concentrate	-11.5161
▁inhabit	-11.5162
▁reader	-11.5162
mostly	-11.5163
▁elder	-11.5169
▁marc	-11.517
▁latin	-11.5171
▁axe	-11.5176
▁compete	-11.5176
▁companies	-11.5176
▁entitled	-11.5176
▁sergeant	-11.5176
▁abraham	-11.5176
▁rehash	-11.5176
▁sickening	-11.5176
▁collapse	-11.5176
▁hulk	-11.5176
▁smiling	-11.5176
watching	-11.5176
▁divine	-11.5176
▁mildred	-11.5177
▁racing	-11.5177
▁demise	-11.5177
▁underwater	-11.5179
▁recycled	-11.518
code	-11.5182
▁warren	-11.5182
▁precisely	-11.5182
▁snowman	-11.5183
▁acclaimed	-11.5183
▁document	-11.5184
▁purple	-11.5184
▁panic	-11.519
using	-11.5191
▁idol	-11.5192
▁poker	-11.5192
mont	-11.5195
▁jews	-11.5196
▁penny	-11.5199
▁3-	-11.5203
rat	-11.5205
▁visits	-11.5205
▁symbol	-11.5205
▁hearted	-11.5208
▁designs	-11.5208
▁policeman	-11.5214
▁birds	-11.5219
▁clan	-11.5224
ppy	-11.5226
▁assumed	-11.5227
▁dodge	-11.5229
▁stiller	-11.5234
▁plate	-11.5242
▁shorter	-11.5243
▁conflicts	-11.5247
vision	-11.5251
frank	-11.5251
▁merits	-11.5254
▁ordered	-11.5254
▁emphasize	-11.5256
▁ensure	-11.5268
▁cameras	-11.5269
serv	-11.5269
▁ob	-11.5272
pu	-11.5275
▁accomplish	-11.5278
▁abound	-11.5285
▁exceptions	-11.5285
▁posted	-11.5288
▁dialogues	-11.529
▁expense	-11.5296
▁holocaust	-11.5296
▁sarcastic	-11.5296
▁fifth	-11.5296
▁lunch	-11.5297
▁whale	-11.5297
▁abusive	-11.5297
▁warrant	-11.5297
▁hughes	-11.5299
▁brutality	-11.53
▁sanders	-11.5301
▁tho	-11.5301
▁sydney	-11.5301
▁sunshine	-11.5302
▁stuart	-11.5302
▁9/11	-11.5302
▁worship	-11.5302
▁zoom	-11.5305
▁billed	-11.5305
▁rejected	-11.5306
▁foil	-11.5306
illa	-11.5307
▁forbidden	-11.5308
▁swing	-11.5308
▁daddy	-11.5311
▁colin	-11.5312
kar	-11.5312
▁suggestion	-11.5317
▁lifted	-11.5318
▁assured	-11.532
▁landscapes	-11.5322
▁obligator	-11.5322
▁principle	-11.5323
▁fried	-11.5323
▁caricature	-11.5324
▁simpson	-11.5324
▁newman	-11.5328
▁writes	-11.5335
lyn	-11.5338
▁muppets	-11.5339
▁methods	-11.534
-19	-11.5343
▁kidman	-11.5343
plan	-11.5345
▁---	-11.5345
▁monk	-11.5347
▁regarded	-11.5347
ban	-11.535
▁voted	-11.5354
▁ranger	-11.5355
▁mega	-11.5358
▁viewings	-11.5359
ani	-11.5361
▁reaching	-11.5364
▁tin	-11.5365
▁visiting	-11.5369
fetched	-11.5373
▁der	-11.5375
may	-11.5383
3)	-11.5385
notch	-11.5389
sub	-11.5389
▁respected	-11.5394
▁liv	-11.5398
▁torment	-11.5405
*****	-11.5408
▁profession	-11.5415
▁nolan	-11.5416
▁trauma	-11.5418
▁antagonist	-11.5418
▁fifties	-11.5418
▁gorilla	-11.5418
▁imaginable	-11.5418
▁opportunities	-11.5418
▁streisand	-11.5418
▁adolescent	-11.5418
▁dillon	-11.5419
▁flair	-11.5419
ika	-11.5419
▁static	-11.5419
▁decline	-11.5419
▁bravo	-11.542
▁eleven	-11.5421
▁thrust	-11.5421
▁mencia	-11.5422
▁communication	-11.5423
▁kenneth	-11.5424
arm	-11.5427
▁modesty	-11.5428
ero	-11.543
▁adopted	-11.5432
▁witches	-11.5432
fun	-11.5436
▁gap	-11.5439
camp	-11.5447
▁motive	-11.5449
▁wong	-11.5455
▁dealer	-11.5459
........	-11.5462
▁grind	-11.547
▁rex	-11.5476
▁yu	-11.5477
eur	-11.5484
cause	-11.5484
▁milo	-11.5487
▁wh	-11.5492
modern	-11.5496
▁messy	-11.5496
▁difficulty	-11.5498
▁distract	-11.5502
▁steam	-11.5504
▁desires	-11.5504
▁horn	-11.5507
adam	-11.5509
bound	-11.551
▁mock	-11.5511
▁salt	-11.5512
▁secretly	-11.5513
▁patch	-11.5521
ute	-11.5522
▁bio	-11.5525
burn	-11.5526
▁disguise	-11.5527
▁specially	-11.5528
▁slo	-11.5529
▁fashioned	-11.5534
▁dread	-11.5542
▁nephew	-11.5542
▁penguin	-11.5542
▁provocative	-11.5542
▁significance	-11.5542
▁supply	-11.5542
▁hopkins	-11.5542
▁assuming	-11.5542
▁brosnan	-11.5542
▁celebration	-11.5542
▁mccoy	-11.5542
▁obsessive	-11.5542
▁gilbert	-11.5542
▁toronto	-11.5542
▁species	-11.5542
▁dickens	-11.5543
▁unrelated	-11.5544
▁1972	-11.5544
▁considerably	-11.5544
▁wrestler	-11.5545
▁invention	-11.5545
▁confidence	-11.5546
▁reign	-11.5547
▁feminist	-11.5549
▁apple	-11.5549
▁respectable	-11.5551
▁invented	-11.5551
▁gig	-11.5551
▁phantom	-11.5552
▁carmen	-11.5555
▁hurts	-11.5555
ock	-11.5557
▁vastly	-11.5559
▁steer	-11.556
▁rome	-11.556
▁delve	-11.5564
▁arch	-11.5569
▁poo	-11.557
▁egg	-11.5573
▁thread	-11.5576
▁quietly	-11.5584
▁pirate	-11.5586
taking	-11.5589
▁teachers	-11.5589
arch	-11.559
elle	-11.5608
yr	-11.561
▁jill	-11.5621
▁recover	-11.5625
seriously	-11.5629
▁heights	-11.5631
press	-11.5646
▁corpses	-11.5649
▁shoe	-11.565
▁ps	-11.5651
▁sketch	-11.5655
▁fluff	-11.5661
▁hugh	-11.5667
▁ambiguous	-11.5667
▁biblical	-11.5667
▁camcorder	-11.5667
▁derivative	-11.5667
▁fifty	-11.5667
▁motorcycle	-11.5667
▁razor	-11.5667
▁seymour	-11.5667
▁submarine	-11.5667
▁voodoo	-11.5667
▁python	-11.5667
▁conquer	-11.5667
▁copied	-11.5667
▁route	-11.5667
▁1983	-11.5668
▁sharing	-11.5668
▁goldberg	-11.5668
▁tomatoes	-11.5668
▁bully	-11.5669
▁sto	-11.567
▁possession	-11.567
▁deceased	-11.5671
nor	-11.5672
▁phenomenal	-11.5672
▁glued	-11.5673
▁akshay	-11.5674
▁eugene	-11.5674
▁ruby	-11.5675
▁hyper	-11.5675
▁height	-11.5676
▁tre	-11.5677
▁hay	-11.5677
▁diana	-11.5677
▁richardson	-11.5678
▁demonic	-11.5678
▁controlled	-11.5678
▁differently	-11.568
▁sid	-11.5684
)...	-11.569
▁resources	-11.5691
give	-11.5691
▁elm	-11.5697
▁stretched	-11.5701
▁conventions	-11.5707
▁knocked	-11.5709
dar	-11.5716
▁moronic	-11.5716
▁han	-11.5726
▁releases	-11.573
▁rec	-11.5733
▁towers	-11.5743
held	-11.5744
rna	-11.5745
▁pages	-11.5746
bottom	-11.5748
besides	-11.5748
▁jam	-11.5752
▁centers	-11.5759
af	-11.576
▁tam	-11.5761
force	-11.5762
▁seduce	-11.5762
▁snatch	-11.5771
▁sant	-11.5771
▁matched	-11.578
▁immediate	-11.5782
▁foolish	-11.5785
ison	-11.5786
mart	-11.5786
▁moreover	-11.579
▁orchestra	-11.579
▁chorus	-11.5793
▁empathy	-11.5793
▁extensive	-11.5793
▁gibson	-11.5793
▁olivier	-11.5793
▁austin	-11.5793
▁peculiar	-11.5793
▁lavish	-11.5793
▁frozen	-11.5794
▁basketball	-11.5794
://	-11.5794
▁shaky	-11.5794
▁dalton	-11.5794
▁barrymore	-11.5794
▁deserving	-11.5794
▁jarring	-11.5794
▁groan	-11.5795
▁spice	-11.5795
▁inexplicably	-11.5796
▁kathy	-11.5796
▁travolta	-11.5797
uff	-11.5798
▁macho	-11.5798
▁fence	-11.5798
▁apes	-11.5798
▁misleading	-11.5799
▁scooby	-11.58
▁troubles	-11.58
▁rapist	-11.58
▁biased	-11.5802
▁rupert	-11.5804
aries	-11.5805
▁ernest	-11.5805
▁apply	-11.5806
▁consideration	-11.5807
▁tracking	-11.5807
aki	-11.5809
cus	-11.5814
▁thrilled	-11.5815
▁startling	-11.5816
▁pole	-11.582
jane	-11.582
▁mick	-11.5827
▁occasions	-11.5827
▁dj	-11.5829
▁muslim	-11.5832
▁disregard	-11.5838
lee	-11.584
cross	-11.5849
1)	-11.5852
5/10	-11.586
▁pause	-11.586
▁stunningly	-11.5861
▁mins	-11.5862
ob	-11.5865
▁carlos	-11.5872
▁active	-11.5872
▁assure	-11.5874
▁shared	-11.5875
apparently	-11.5876
scary	-11.5877
▁mcc	-11.5878
vol	-11.5881
thanks	-11.589
cker	-11.5896
▁ye	-11.5906
close	-11.5906
▁embrace	-11.5906
▁liners	-11.5907
▁generate	-11.5907
▁prominent	-11.591
▁online	-11.5911
▁tech	-11.5918
▁ku	-11.5919
▁jess	-11.592
▁egypt	-11.5921
▁bikini	-11.5922
▁czech	-11.5922
▁explosive	-11.5922
▁intricate	-11.5922
▁resume	-11.5922
▁furious	-11.5922
▁redneck	-11.5922
▁acceptance	-11.5923
▁unseen	-11.5923
▁waitress	-11.5923
▁wilderness	-11.5924
▁russo	-11.5924
▁vital	-11.5926
▁september	-11.5927
▁foxx	-11.5927
▁judy	-11.5928
ique	-11.593
▁election	-11.5931
▁differ	-11.5935
▁cuba	-11.5938
pel	-11.5939
▁addicted	-11.5942
▁evidently	-11.5942
▁asset	-11.5944
▁downey	-11.595
▁grass	-11.595
▁mud	-11.595
▁taxi	-11.595
▁cube	-11.5951
aking	-11.5954
▁topics	-11.5959
▁forgiven	-11.596
▁ambition	-11.5964
▁phillip	-11.5965
▁confession	-11.5973
▁eh	-11.5978
▁pc	-11.5984
▁newly	-11.5985
east	-11.5985
final	-11.5995
cru	-11.5997
▁dish	-11.5998
▁affairs	-11.5999
ria	-11.6
▁inability	-11.6003
those	-11.6006
▁phillips	-11.6008
ira	-11.6009
sigh	-11.601
▁logan	-11.6013
▁opt	-11.6014
▁supported	-11.6014
▁1930'	-11.6021
▁reward	-11.6023
yer	-11.6028
▁poke	-11.6033
▁rant	-11.6033
▁asia	-11.6033
▁applaud	-11.6037
ram	-11.604
▁sugar	-11.6044
scottish	-11.6045
▁strain	-11.6046
▁previews	-11.605
dding	-11.6051
▁compassion	-11.6051
▁belushi	-11.6052
▁deniro	-11.6052
▁examination	-11.6052
▁hackneyed	-11.6052
▁hapless	-11.6052
▁hilarity	-11.6052
▁inaccurate	-11.6052
▁perception	-11.6052
▁pfeiffer	-11.6052
▁vibrant	-11.6052
▁headache	-11.6052
▁denzel	-11.6052
▁conscience	-11.6052
▁click	-11.6052
▁buzz	-11.6052
▁dysfunctional	-11.6052
▁loyalty	-11.6053
▁hilton	-11.6053
▁voyage	-11.6053
▁ripping	-11.6054
▁weaknesses	-11.6055
▁frightened	-11.6056
▁spencer	-11.6057
▁den	-11.6059
▁difficulties	-11.606
▁christina	-11.6061
▁experiments	-11.6062
▁rapidly	-11.6062
▁translated	-11.6067
▁scifi	-11.6067
▁sticking	-11.6075
▁melting	-11.6075
▁mum	-11.6076
heart	-11.608
fly	-11.6082
▁rom	-11.6084
isation	-11.6084
rlock	-11.609
rest	-11.6091
▁fuller	-11.6093
hoo	-11.6094
▁mama	-11.6094
▁coincidence	-11.6097
▁error	-11.61
▁explores	-11.6103
▁dates	-11.6105
▁visited	-11.6106
later	-11.6107
mind	-11.6111
born	-11.6114
wind	-11.6118
hum	-11.6118
▁outlaw	-11.6119
▁deserted	-11.6123
▁sellers	-11.6123
boring	-11.6124
load	-11.6135
fiction	-11.6138
winning	-11.6138
▁destroying	-11.6144
▁ants	-11.6148
▁guards	-11.615
sey	-11.615
▁hears	-11.6157
▁mixing	-11.6163
▁seal	-11.6166
▁increase	-11.6168
▁translate	-11.6168
▁reluctant	-11.6172
save	-11.6173
▁melt	-11.6176
▁analysis	-11.6183
▁aspiring	-11.6183
▁deleted	-11.6183
▁psychology	-11.6183
▁youtube	-11.6183
▁domino	-11.6183
▁paramount	-11.6183
▁organization	-11.6183
▁departure	-11.6183
▁rambling	-11.6183
▁pierce	-11.6183
▁automatically	-11.6184
▁amusement	-11.6184
▁nightclub	-11.6184
▁rambo	-11.6185
▁legitimate	-11.6186
▁gentlemen	-11.6187
▁1979	-11.6188
▁dunne	-11.6188
▁minority	-11.6189
▁profit	-11.6189
▁rever	-11.619
▁leather	-11.619
▁millionaire	-11.6191
▁isabelle	-11.6191
▁femme	-11.6191
▁flashes	-11.6192
▁pleasing	-11.6192
▁vin	-11.6194
▁scriptwriter	-11.6194
▁ponyo	-11.6197
▁vain	-11.6197
▁willie	-11.6198
▁harrison	-11.6198
htt	-11.6198
40	-11.6199
quite	-11.62
▁serving	-11.6203
▁akin	-11.6208
(..	-11.6222
▁doubts	-11.6226
▁wholly	-11.6226
▁mechanical	-11.6229
eb	-11.6231
▁hk	-11.6234
▁charged	-11.6234
jun	-11.6236
▁grin	-11.6239
late	-11.6243
▁heston	-11.6245
▁stumbles	-11.6255
ered	-11.626
▁centered	-11.6264
▁heroin	-11.6265
plus	-11.6274
▁iv	-11.6276
speaking	-11.6277
▁taped	-11.6278
fish	-11.6283
unlike	-11.6284
▁simpsons	-11.6286
▁cam	-11.6294
▁shares	-11.6295
▁adopt	-11.6301
▁dominate	-11.6301
var	-11.6305
▁stab	-11.6306
▁tube	-11.6309
▁cushing	-11.6316
▁investigator	-11.6316
▁odyssey	-11.6316
▁participate	-11.6316
▁rebellious	-11.6316
▁seductive	-11.6316
▁coffin	-11.6316
▁herzog	-11.6316
▁tcm	-11.6317
▁biopic	-11.6317
▁wagner	-11.6317
▁hayworth	-11.6317
▁exterior	-11.6317
▁ballet	-11.6317
▁bulk	-11.6317
▁tackle	-11.6317
▁kumar	-11.6317
▁lambert	-11.6317
▁dixon	-11.6317
▁preferred	-11.6318
▁stir	-11.6318
▁commitment	-11.6318
▁limp	-11.6319
▁beatles	-11.632
▁frontier	-11.6321
▁feat	-11.6321
▁damon	-11.6322
▁grainy	-11.6323
▁beverly	-11.6324
▁convicted	-11.6327
▁nicholas	-11.6327
▁rusty	-11.6327
▁transformed	-11.6329
▁wander	-11.6335
*1/2	-11.6338
▁operate	-11.6338
▁victory	-11.6339
actor	-11.634
▁superstar	-11.6341
▁rides	-11.6346
▁sitcoms	-11.6349
▁boost	-11.6358
▁incorporate	-11.6361
▁jaws	-11.6364
▁wilder	-11.6365
fan	-11.6367
▁freeze	-11.6367
▁fanatic	-11.6372
▁paintings	-11.6375
▁nails	-11.6382
▁morally	-11.6382
hur	-11.6384
▁hats	-11.6385
▁connections	-11.6386
▁dumber	-11.6389
▁expectation	-11.6389
▁dressing	-11.639
rac	-11.6396
▁lil	-11.6397
▁homer	-11.6398
▁backwards	-11.6407
culture	-11.6408
everyone	-11.6408
▁amy	-11.6412
▁machines	-11.6415
toole	-11.6417
▁luc	-11.6429
playing	-11.6432
▁transport	-11.6436
▁mount	-11.6437
▁credited	-11.644
ella	-11.6445
▁info	-11.6445
▁filmmaking	-11.6445
▁abortion	-11.6452
▁destination	-11.6452
▁gypsy	-11.6452
▁identical	-11.6452
▁olivia	-11.6452
▁quentin	-11.6452
▁ridicule	-11.6452
▁scotland	-11.6452
▁scrooge	-11.6452
▁thieves	-11.6452
▁verhoeven	-11.6452
▁uplifting	-11.6452
▁gambling	-11.6452
▁shortcomings	-11.6452
▁swayze	-11.6452
▁informative	-11.6452
▁clay	-11.6452
▁patron	-11.6453
▁clive	-11.6453
▁elite	-11.6454
▁absurdity	-11.6456
▁curly	-11.6456
▁caliber	-11.6457
▁hayes	-11.6458
▁stu	-11.6461
▁uwe	-11.6461
▁spur	-11.6466
▁highway	-11.6467
▁dash	-11.6467
▁danes	-11.6468
▁avid	-11.6468
▁disgusted	-11.6469
▁minded	-11.647
▁!!	-11.6471
▁weakness	-11.6472
▁critique	-11.6472
▁flashy	-11.6475
▁slide	-11.6478
▁demanding	-11.6483
mes	-11.6484
▁refuse	-11.65
▁liz	-11.6502
music	-11.6507
hn	-11.6508
▁brat	-11.6508
▁foundation	-11.6515
▁cher	-11.6519
▁painter	-11.6524
▁bandit	-11.654
▁skit	-11.654
▁tower	-11.6545
▁seed	-11.6549
▁bars	-11.6551
▁informed	-11.6553
▁caricatures	-11.6558
▁rangers	-11.6562
fo	-11.657
▁sustain	-11.6574
nik	-11.6574
▁garner	-11.6575
▁eventual	-11.6578
▁filth	-11.6581
mother	-11.6584
▁fundamental	-11.6585
0,000	-11.6586
▁basinger	-11.6589
▁buffalo	-11.6589
▁cemetery	-11.6589
▁definitive	-11.6589
▁eagle	-11.6589
▁flavor	-11.6589
▁flimsy	-11.6589
▁lampoon	-11.6589
▁monroe	-11.6589
▁neurotic	-11.6589
▁paranoid	-11.6589
▁shepherd	-11.6589
▁unsatisfying	-11.6589
▁ronald	-11.6589
▁darwin	-11.6589
▁incest	-11.6589
▁bastard	-11.659
▁boston	-11.659
▁earnest	-11.659
▁blink	-11.659
▁1920	-11.659
▁wesley	-11.6591
▁claustrophobic	-11.6591
▁collective	-11.6592
▁breakdown	-11.6592
▁lush	-11.6592
▁bald	-11.6593
▁additional	-11.6593
▁brooding	-11.6594
▁199	-11.6595
▁speeches	-11.6599
▁remade	-11.6599
▁respectively	-11.6599
▁helpful	-11.66
▁22	-11.6603
gal	-11.6604
▁blatantly	-11.6607
aud	-11.6614
▁boob	-11.6616
▁guaranteed	-11.6619
▁raid	-11.6627
▁claus	-11.6629
▁balanced	-11.663
ille	-11.664
odd	-11.6647
▁framed	-11.6649
▁mutant	-11.6649
▁observation	-11.6649
▁kissing	-11.6649
ev	-11.665
▁lifeless	-11.6654
cious	-11.6655
▁entering	-11.6659
fr	-11.6675
quality	-11.6681
producer	-11.6682
blue	-11.6687
▁commenting	-11.6687
▁blu	-11.6695
▁engine	-11.6695
▁baron	-11.6701
▁tease	-11.6704
▁conveys	-11.6705
▁grabs	-11.671
gore	-11.6711
burg	-11.6711
5)	-11.6713
▁abrupt	-11.6716
▁rapid	-11.6717
▁morals	-11.6721
▁wash	-11.6725
▁assignment	-11.6727
▁devastating	-11.6727
▁eternity	-11.6727
▁hybrid	-11.6727
▁medicine	-11.6727
▁misguided	-11.6727
▁ominous	-11.6727
▁repulsive	-11.6727
▁visconti	-11.6727
▁senior	-11.6727
▁warehouse	-11.6727
▁immature	-11.6727
▁arrow	-11.6728
▁spree	-11.6728
▁ginger	-11.6728
▁unlikable	-11.6728
▁ollie	-11.6728
▁tempted	-11.6728
▁bucket	-11.6728
▁walsh	-11.6728
▁stairs	-11.6728
▁clooney	-11.6728
early	-11.6729
▁1971	-11.6729
▁malone	-11.673
▁comprehend	-11.673
▁aesthetic	-11.6731
▁mentality	-11.6731
▁salman	-11.6731
▁distraction	-11.6732
▁stopping	-11.6733
▁collector	-11.6733
▁punches	-11.6736
uous	-11.6737
▁canceled	-11.6737
▁taboo	-11.6737
▁abruptly	-11.6739
▁norm	-11.6741
▁rendered	-11.6741
mc	-11.6742
▁healthy	-11.6743
▁challenges	-11.6744
▁turd	-11.6747
▁slip	-11.6749
▁switched	-11.675
▁titanic	-11.6755
▁karl	-11.6764
mir	-11.6764
▁coma	-11.6764
▁items	-11.6766
etc	-11.6767
▁sar	-11.6769
▁vignettes	-11.6769
▁agency	-11.6776
▁nominations	-11.6776
▁boyle	-11.6779
▁scan	-11.6779
▁ash	-11.6785
▁palm	-11.6786
▁beth	-11.6788
▁joey	-11.6798
▁2-	-11.6803
▁belle	-11.6804
▁tar	-11.6805
▁horizon	-11.6806
▁chill	-11.6806
▁sending	-11.6811
▁belly	-11.6812
▁lam	-11.6812
▁zi	-11.6812
▁julian	-11.6814
▁snap	-11.6815
▁fright	-11.6816
conscious	-11.6819
wi	-11.6822
murder	-11.6823
better	-11.6823
▁yell	-11.6824
▁gil	-11.6827
next	-11.6827
ali	-11.6829
▁qui	-11.6834
angel	-11.6834
tig	-11.6835
ux	-11.6837
▁sooner	-11.6846
bone	-11.6855
midst	-11.6858
▁disastrous	-11.6868
▁glaring	-11.6868
▁mesmerizing	-11.6868
▁underneath	-11.6868
▁vaughn	-11.6868
▁spoon	-11.6868
▁mannerisms	-11.6868
▁gregory	-11.6868
.8/10	-11.6869
▁hallmark	-11.6869
▁1939	-11.6869
▁snuff	-11.6869
▁greet	-11.6869
▁marries	-11.6869
▁activity	-11.6869
▁potter	-11.687
▁viewpoint	-11.6871
▁cbs	-11.6872
▁continuing	-11.6872
▁housewife	-11.6872
pur	-11.6872
▁pocket	-11.6873
▁rag	-11.6873
▁kline	-11.6874
▁brenda	-11.6875
▁suspension	-11.6876
▁harbor	-11.6877
▁outdoor	-11.6878
produced	-11.6882
▁warden	-11.6883
proving	-11.6884
▁comeback	-11.6886
▁attended	-11.6888
▁yep	-11.6888
▁enhanced	-11.689
▁iran	-11.6893
▁nero	-11.6894
▁monkeys	-11.6894
classic	-11.6895
▁dive	-11.6896
▁divorced	-11.6897
▁cannes	-11.69
same	-11.6907
▁crow	-11.6907
▁longest	-11.6913
ye	-11.6914
▁math	-11.6923
▁upside	-11.6926
▁intro	-11.6927
▁nerves	-11.6929
▁cheerful	-11.6929
solely	-11.693
▁peters	-11.6938
▁breathe	-11.6939
▁clo	-11.6943
▁roots	-11.6943
"!	-11.6947
▁devices	-11.695
eck	-11.6957
▁reform	-11.6958
▁tactics	-11.6966
third	-11.6966
sometimes	-11.6966
eau	-11.697
▁rises	-11.6978
breaking	-11.698
▁rang	-11.698
enti	-11.6982
▁lens	-11.6983
uch	-11.699
iko	-11.6998
▁lad	-11.6999
100	-11.7011
▁bakshi	-11.7011
▁cassidy	-11.7011
▁contempt	-11.7011
▁heartfelt	-11.7011
▁injustice	-11.7011
▁misfortune	-11.7011
▁paltrow	-11.7011
▁imitate	-11.7011
.4/10	-11.7011
▁provoke	-11.7011
▁shelley	-11.7012
▁duration	-11.7012
▁smug	-11.7012
▁1993	-11.7013
▁posing	-11.7013
▁bacon	-11.7014
▁madsen	-11.7014
▁wings	-11.7014
▁artistry	-11.7014
▁surrender	-11.7015
▁jaded	-11.7015
▁danish	-11.7017
▁partially	-11.7017
▁chopped	-11.7018
▁flock	-11.7018
▁kramer	-11.7021
▁booth	-11.7021
▁boil	-11.7026
▁realization	-11.7029
▁nat	-11.7029
mus	-11.703
▁bread	-11.703
▁apt	-11.7036
▁scar	-11.7036
▁soup	-11.7042
wick	-11.7049
▁mentions	-11.7051
▁delighted	-11.7055
▁wounds	-11.7056
▁conscious	-11.7056
▁drab	-11.7057
▁youngest	-11.7058
▁trials	-11.706
▁surroundings	-11.7061
must	-11.7063
▁3)	-11.7068
▁volume	-11.7084
▁survives	-11.7087
▁assist	-11.7088
▁troops	-11.7091
zel	-11.7102
capable	-11.7112
office	-11.7113
whatever	-11.7115
▁reno	-11.7117
▁smash	-11.7121
▁ger	-11.7128
highly	-11.7132
▁sweep	-11.7135
▁thunder	-11.7137
▁fade	-11.7139
▁acknowledge	-11.7141
▁layers	-11.7145
▁lean	-11.7152
▁intentional	-11.7153
▁float	-11.7154
▁prospect	-11.7155
▁affleck	-11.7156
▁caution	-11.7156
▁expedition	-11.7156
▁exploring	-11.7156
▁improbable	-11.7156
▁inevitably	-11.7156
▁orleans	-11.7156
▁receiving	-11.7156
▁transplant	-11.7156
▁dwarf	-11.7156
▁injured	-11.7156
▁casper	-11.7156
▁terrified	-11.7156
▁gerard	-11.7156
▁studies	-11.7157
▁dismal	-11.7157
▁banter	-11.7157
▁promotion	-11.7157
▁preston	-11.7157
▁alvin	-11.7158
▁depardieu	-11.7159
▁pacific	-11.716
jay	-11.7161
▁wayans	-11.7161
▁hindi	-11.7162
▁lois	-11.7162
▁rainbow	-11.7162
▁preachy	-11.7163
▁undead	-11.7163
▁advertised	-11.7163
▁slimy	-11.7163
▁iq	-11.7164
▁uncut	-11.7164
▁fuel	-11.7165
▁exec	-11.7167
▁gandhi	-11.7167
▁sixth	-11.717
▁palma	-11.7171
▁chip	-11.7173
lucille	-11.7177
.............	-11.7181
▁fog	-11.7182
cam	-11.7183
ification	-11.7187
eating	-11.7189
ident	-11.7199
▁shove	-11.7199
▁elevate	-11.72
▁freaking	-11.7203
▁doris	-11.7212
gate	-11.7212
▁cooking	-11.7217
▁outright	-11.7218
▁artsy	-11.7221
▁pow	-11.7222
half	-11.7222
▁rack	-11.7228
mic	-11.724
▁gee	-11.7242
▁bombing	-11.7243
▁skits	-11.7243
zar	-11.7245
▁studying	-11.7249
▁concepts	-11.7256
▁sk	-11.7257
▁natives	-11.7259
driven	-11.7259
obviously	-11.7261
▁afterward	-11.7263
▁irene	-11.7267
▁seedy	-11.7268
tie	-11.7268
▁approaching	-11.7273
80	-11.7277
▁observe	-11.7277
aid	-11.7279
▁inject	-11.7282
app	-11.7286
▁supreme	-11.7292
▁cliches	-11.7292
▁respective	-11.7297
▁immortal	-11.7302
▁cro	-11.7303
▁bros	-11.7303
▁unimaginative	-11.7303
▁wheelchair	-11.7303
▁anticipation	-11.7303
▁experiencing	-11.7303
▁independence	-11.7303
▁phoebe	-11.7303
▁undeniably	-11.7303
▁fetish	-11.7303
▁martian	-11.7303
▁telephone	-11.7303
▁disorder	-11.7303
▁almighty	-11.7303
▁pornography	-11.7303
▁eyre	-11.7304
▁pepper	-11.7304
▁suburban	-11.7304
▁pathos	-11.7305
▁1988	-11.7305
▁1982	-11.7305
▁liar	-11.7306
▁godzilla	-11.731
▁imaginary	-11.731
▁piper	-11.7313
▁thirst	-11.7314
▁youthful	-11.7315
▁novelty	-11.7316
▁nemesis	-11.7318
▁educated	-11.7318
▁approaches	-11.7321
▁vile	-11.7321
wall	-11.7323
▁finn	-11.7325
▁outfits	-11.7327
▁morons	-11.733
▁sales	-11.733
▁adaptations	-11.733
▁pub	-11.7334
▁safely	-11.7344
scene	-11.7345
uh	-11.7349
▁crown	-11.7352
eat	-11.7352
▁len	-11.7356
▁daniels	-11.7356
▁masks	-11.7362
▁beside	-11.7369
psycho	-11.7372
▁immigrant	-11.7385
▁stro	-11.7385
11	-11.7386
mie	-11.7397
cess	-11.7401
▁reminder	-11.7406
▁locale	-11.7407
feel	-11.7407
father	-11.7408
▁chop	-11.7412
▁hides	-11.7415
▁annoy	-11.7418
ograph	-11.7419
thin	-11.7419
▁avoiding	-11.7424
▁siblings	-11.7427
had	-11.7428
▁frat	-11.7431
ois	-11.7432
▁psyche	-11.7433
▁attacking	-11.7434
▁confuse	-11.7437
alice	-11.7437
▁fortunate	-11.7441
has	-11.7442
▁interpret	-11.7444
▁portrayals	-11.7447
apart	-11.745
▁echo	-11.7452
▁afghanistan	-11.7452
▁energetic	-11.7452
▁exploding	-11.7452
▁jersey	-11.7452
▁pizza	-11.7452
▁preminger	-11.7452
▁spectator	-11.7452
▁splash	-11.7452
▁understatement	-11.7452
▁unsuspecting	-11.7452
▁cohen	-11.7452
▁sterling	-11.7452
▁novak	-11.7452
▁armstrong	-11.7452
▁rochester	-11.7453
▁bogart	-11.7453
▁bonnie	-11.7453
▁subtly	-11.7453
▁jock	-11.7454
▁ebert	-11.7454
▁ethan	-11.7455
▁rory	-11.7456
▁females	-11.7456
▁whine	-11.7457
▁published	-11.7458
▁sebastian	-11.7458
▁grateful	-11.7458
▁dictator	-11.7458
▁lethal	-11.7458
.2.	-11.7459
▁downfall	-11.746
▁swept	-11.746
▁comparisons	-11.7462
▁selected	-11.7464
doo	-11.7465
▁satirical	-11.7465
▁raising	-11.7466
▁resolved	-11.7469
▁jealousy	-11.747
▁gable	-11.7473
▁pill	-11.7473
▁signal	-11.7477
▁altered	-11.7478
▁sync	-11.7478
▁tele	-11.7483
▁queens	-11.7489
▁carson	-11.7489
▁fatale	-11.7496
▁delightfully	-11.7503
▁ur	-11.7504
▁separated	-11.7505
▁coin	-11.7512
ann	-11.752
▁cracking	-11.7523
▁claiming	-11.7523
▁posters	-11.7531
▁dana	-11.7532
ick	-11.7534
road	-11.7536
▁cameraman	-11.7537
▁kidnap	-11.7537
▁miner	-11.7538
▁servant	-11.7539
▁nerve	-11.754
thy	-11.7543
▁wanders	-11.7544
▁thumb	-11.7551
▁israeli	-11.7554
▁strings	-11.7554
dream	-11.7555
mystery	-11.7559
should	-11.7559
ona	-11.7559
▁verge	-11.7561
lines	-11.7562
▁mole	-11.7563
▁pros	-11.7564
▁contestants	-11.7564
stick	-11.7565
▁render	-11.757
▁sting	-11.7584
▁confirm	-11.7589
▁bum	-11.7593
▁cents	-11.7598
▁bart	-11.7599
▁arguing	-11.7604
▁arriving	-11.7604
▁choosing	-11.7604
▁dawson	-11.7604
▁duvall	-11.7604
▁havoc	-11.7604
▁inclined	-11.7604
▁lopez	-11.7604
▁netflix	-11.7604
▁portuguese	-11.7604
▁substantial	-11.7604
▁tendency	-11.7604
▁aztec	-11.7604
▁bubble	-11.7604
▁embark	-11.7604
▁scorpion	-11.7604
▁swamp	-11.7604
▁sissy	-11.7604
▁admission	-11.7604
▁indication	-11.7604
▁segal	-11.7605
▁request	-11.7605
▁grier	-11.7605
▁brett	-11.7605
▁skinny	-11.7605
▁authorities	-11.7606
▁shopping	-11.7606
▁spout	-11.7606
------------	-11.7607
▁underdog	-11.7607
▁ships	-11.761
▁monica	-11.7612
▁shred	-11.7612
▁victorian	-11.7614
▁motor	-11.7615
zu	-11.7615
200	-11.7616
▁stare	-11.7619
▁glowing	-11.7619
▁wider	-11.7623
▁diner	-11.7624
▁enthusiastic	-11.7625
▁disguised	-11.7626
▁interestingly	-11.7629
▁dumped	-11.7632
▁contributed	-11.7633
boo	-11.7635
fast	-11.7637
▁discussing	-11.7637
8)	-11.764
slow	-11.7641
matt	-11.7643
▁entered	-11.7659
▁vo	-11.766
coat	-11.7672
▁pose	-11.7679
▁crop	-11.7687
▁anton	-11.769
▁lowe	-11.7691
▁messing	-11.7693
▁monologue	-11.7695
▁trivia	-11.7696
▁file	-11.7698
▁talkie	-11.7703
▁ban	-11.7704
▁pairing	-11.7705
possible	-11.7712
beautiful	-11.7712
pretty	-11.7712
▁scrap	-11.7713
fashioned	-11.7715
laugh	-11.7715
tale	-11.7716
spirited	-11.7718
▁bog	-11.7722
▁tomb	-11.7723
▁sail	-11.7725
▁slob	-11.7726
▁styles	-11.773
stay	-11.7734
▁pounds	-11.7737
▁russians	-11.7737
hall	-11.7738
▁betray	-11.7741
▁lasting	-11.7742
▁distinguish	-11.7743
girls	-11.7745
▁radical	-11.7746
▁despicable	-11.7758
▁engrossing	-11.7758
▁istanbul	-11.7758
▁reliable	-11.7758
▁remorse	-11.7758
▁shrink	-11.7758
▁bloom	-11.7758
▁disabled	-11.7758
▁hepburn	-11.7758
▁qualify	-11.7758
▁sensible	-11.7758
▁tolerance	-11.7758
▁article	-11.7758
▁meandering	-11.7758
▁cattle	-11.7758
▁bacall	-11.7758
▁dominic	-11.7759
▁recognizable	-11.7759
▁email	-11.7759
▁chooses	-11.7759
▁referring	-11.7759
▁1984	-11.776
▁alison	-11.776
▁inexplicable	-11.776
▁rumor	-11.776
▁diverse	-11.7761
▁marx	-11.7763
▁fiend	-11.7764
▁invest	-11.7764
▁hammy	-11.7766
▁ripoff	-11.7766
▁jury	-11.7767
▁substitute	-11.7767
▁dumbest	-11.7768
▁everett	-11.7771
▁confident	-11.7771
▁popping	-11.7771
▁poe	-11.7775
▁apocalypse	-11.7776
▁distracted	-11.7776
▁sf	-11.7777
▁handling	-11.7777
▁sweeping	-11.778
▁sincerely	-11.7781
▁mobile	-11.7782
▁july	-11.7782
▁hello	-11.7784
▁swinging	-11.7784
▁suitabl	-11.7786
▁corey	-11.7791
▁admirer	-11.7791
▁linked	-11.7794
ese	-11.7795
▁records	-11.7798
▁lon	-11.7801
raw	-11.7806
ancy	-11.781
▁emerges	-11.7812
▁oldest	-11.7816
lou	-11.7816
ante	-11.7819
▁lighter	-11.7835
▁defie	-11.7844
▁approached	-11.7845
▁whoopi	-11.7847
▁poet	-11.7847
▁pioneer	-11.7853
▁masterpieces	-11.7854
▁answered	-11.7854
▁survivor	-11.7855
chu	-11.7862
▁commits	-11.7867
ridden	-11.7868
zen	-11.7869
lier	-11.787
jones	-11.7871
▁transform	-11.7873
▁sparks	-11.7875
▁pump	-11.7879
▁anytime	-11.788
▁reflects	-11.7882
▁shades	-11.7883
▁ste	-11.7884
▁establish	-11.7887
max	-11.7887
▁owners	-11.7888
turn	-11.789
▁befriends	-11.7892
▁deer	-11.7893
▁amaze	-11.7898
▁schedule	-11.7898
▁drain	-11.7902
▁linger	-11.7903
▁residents	-11.791
▁teams	-11.7913
▁reverse	-11.7913
▁convenient	-11.7914
▁admiration	-11.7914
▁cerebral	-11.7914
▁complications	-11.7914
▁compound	-11.7914
▁dazzling	-11.7914
▁fierce	-11.7914
▁fontaine	-11.7914
▁ghetto	-11.7914
▁implied	-11.7914
▁legacy	-11.7914
▁medieval	-11.7914
▁monotonous	-11.7914
▁parodies	-11.7914
▁redundant	-11.7914
▁ricci	-11.7914
▁shield	-11.7914
▁subtext	-11.7914
▁bishop	-11.7914
▁dietrich	-11.7914
▁overbearing	-11.7914
▁inhabitants	-11.7914
▁woeful	-11.7914
▁feeble	-11.7914
▁limitations	-11.7914
▁dubious	-11.7914
▁:-)	-11.7916
▁costner	-11.7917
▁authenticity	-11.7917
▁shotgun	-11.7918
▁subway	-11.7918
▁romanian	-11.7919
▁christianity	-11.7919
▁brick	-11.792
▁cries	-11.792
▁vanessa	-11.7921
▁promptly	-11.7922
ridge	-11.7923
▁ghoulies	-11.7923
▁ark	-11.7926
▁goat	-11.7928
▁dwell	-11.7932
▁insert	-11.7933
▁cobb	-11.7933
▁freaky	-11.7934
ington	-11.7935
▁remembering	-11.7939
▁fran	-11.7943
eff	-11.7944
▁christians	-11.7947
▁pipe	-11.795
▁webb	-11.795
▁boyer	-11.7951
friends	-11.7958
▁sources	-11.7959
▁formed	-11.7965
▁goof	-11.7967
▁regularly	-11.7969
▁junkie	-11.797
▁poses	-11.7979
their	-11.7981
ax	-11.7982
▁tool	-11.7987
bie	-11.7989
kim	-11.7994
▁zo	-11.7996
date	-11.8003
lead	-11.8004
▁questioning	-11.8008
wit	-11.8011
care	-11.8013
holes	-11.8013
▁employee	-11.8019
would	-11.8027
filled	-11.8028
shirt	-11.8028
bird	-11.8028
remember	-11.803
▁token	-11.8031
▁barn	-11.8031
▁programs	-11.8032
▁warming	-11.8041
genre	-11.805
▁que	-11.8054
▁locate	-11.8057
▁emerge	-11.8058
▁singers	-11.806
▁relentless	-11.8061
▁resolve	-11.8063
▁worms	-11.8066
▁examine	-11.8067
▁criticize	-11.8072
▁staple	-11.8072
▁conduct	-11.8072
▁architect	-11.8073
▁hockey	-11.8073
▁kermit	-11.8073
▁manipulation	-11.8073
▁paradise	-11.8073
▁phenomenon	-11.8073
▁pistol	-11.8073
▁senator	-11.8073
▁stadium	-11.8073
esquire	-11.8073
▁casino	-11.8073
▁gigantic	-11.8073
▁merchant	-11.8073
▁monkees	-11.8073
▁preparing	-11.8073
▁dallas	-11.8073
destined	-11.8073
▁hesitate	-11.8073
▁fritz	-11.8073
▁screwball	-11.8073
▁revisit	-11.8074
▁begging	-11.8074
▁1987	-11.8074
▁garage	-11.8074
tier	-11.8074
▁gein	-11.8074
▁funding	-11.8074
▁firing	-11.8075
▁bryan	-11.8075
witch	-11.8075
▁bava	-11.8076
▁cloth	-11.8076
▁restrained	-11.8077
tell	-11.8078
▁kiddie	-11.8078
wn	-11.808
▁norton	-11.8081
▁artwork	-11.8081
▁infected	-11.8081
▁amitabh	-11.8083
bat	-11.8085
▁homicide	-11.8087
▁loan	-11.8088
▁tossed	-11.809
thought	-11.809
▁seeming	-11.809
▁rewarded	-11.8091
▁sober	-11.8092
▁billing	-11.8092
▁exploited	-11.8093
▁bent	-11.8096
gent	-11.8096
▁threatened	-11.8096
▁terminator	-11.8096
▁handy	-11.8097
▁adjust	-11.8098
▁meyer	-11.8101
▁meantime	-11.8102
▁sm	-11.8104
mal	-11.8105
▁mack	-11.8106
▁regards	-11.8106
▁sta	-11.8109
oid	-11.8111
▁endlessly	-11.8123
▁evans	-11.8125
▁reg	-11.8126
▁dub	-11.8128
boat	-11.8134
▁(195	-11.8138
▁starters	-11.8141
ologist	-11.8142
▁bru	-11.8144
▁owned	-11.8153
▁firstly	-11.8156
fact	-11.8162
25	-11.8166
mine	-11.817
▁filling	-11.8173
▁stud	-11.8178
▁freaks	-11.8179
▁instinct	-11.8179
▁strengths	-11.818
▁oc	-11.8184
▁biker	-11.8185
▁showtime	-11.8187
rah	-11.8188
▁(!)	-11.8188
christopher	-11.8189
▁classy	-11.8189
interesting	-11.8194
match	-11.8194
phone	-11.8198
▁fulfill	-11.8198
▁lili	-11.8199
▁bash	-11.8202
▁kil	-11.8208
▁baddies	-11.8214
▁goals	-11.8215
gli	-11.8216
ffer	-11.8218
▁evolve	-11.8219
▁register	-11.8219
▁ponder	-11.822
▁punish	-11.8221
14	-11.8222
▁visions	-11.8223
▁celebrate	-11.8224
▁harp	-11.823
color	-11.8232
ash	-11.8234
▁frantic	-11.8234
▁nations	-11.8234
▁abomination	-11.8234
▁applied	-11.8234
▁bounce	-11.8234
▁insurance	-11.8234
▁lecture	-11.8234
▁mediocrity	-11.8234
▁micheal	-11.8234
▁schizophrenic	-11.8234
▁mercy	-11.8234
▁trigger	-11.8234
▁sergi	-11.8234
▁rampage	-11.8234
▁lunatic	-11.8234
▁turtle	-11.8234
▁palace	-11.8234
▁tolerable	-11.8234
▁repair	-11.8234
▁randolph	-11.8234
▁graveyard	-11.8234
▁scariest	-11.8234
▁eyebrow	-11.8235
▁1981	-11.8235
▁filter	-11.8235
▁progressive	-11.8235
▁1945	-11.8236
▁wright	-11.8236
▁undercover	-11.8236
▁theories	-11.8236
▁overblown	-11.8236
▁fuzzy	-11.8237
▁sanity	-11.8237
▁possesses	-11.8238
▁samantha	-11.8239
▁harrowing	-11.8239
▁bachelor	-11.824
▁preacher	-11.824
▁accessible	-11.8241
gram	-11.8242
▁kansas	-11.8242
▁profile	-11.8243
▁realistically	-11.8243
▁stalker	-11.8246
▁fay	-11.8247
▁gasp	-11.825
17	-11.8253
▁btw	-11.8254
▁entirety	-11.8256
lay	-11.8258
▁brady	-11.8258
▁heal	-11.8258
▁masterfully	-11.8259
▁otto	-11.8259
▁robertson	-11.8259
reality	-11.8262
.7	-11.8263
▁hysterically	-11.8265
▁playful	-11.8272
▁defy	-11.8272
▁aiming	-11.8283
▁cheaply	-11.8284
▁embarrassingly	-11.8284
▁laser	-11.8285
▁fuss	-11.8288
▁locals	-11.8289
▁flowers	-11.829
fel	-11.829
▁toni	-11.8292
▁fry	-11.8295
▁convention	-11.8302
▁planes	-11.8306
▁mari	-11.8307
ude	-11.8307
bag	-11.8308
▁nope	-11.831
▁tapes	-11.8311
▁intensely	-11.8314
▁cheat	-11.832
▁torch	-11.8323
▁instruct	-11.8326
▁votes	-11.8327
▁kent	-11.8328
▁noah	-11.833
▁mates	-11.8333
▁ul	-11.8335
▁scenarios	-11.8339
pity	-11.8341
▁shocker	-11.8344
▁bert	-11.8344
▁heath	-11.8346
▁slim	-11.8347
▁ensue	-11.8347
▁scam	-11.8347
▁slam	-11.8349
▁remark	-11.835
indulgent	-11.8352
documentary	-11.8353
camera	-11.8353
dvd	-11.8353
▁knee	-11.8353
brother	-11.8354
▁pirates	-11.8354
step	-11.8354
bomb	-11.8357
▁evan	-11.8357
▁esp	-11.8363
nell	-11.8365
▁partners	-11.8369
logical	-11.8372
wer	-11.8375
iling	-11.8377
▁alarm	-11.8379
▁thug	-11.838
pot	-11.838
▁hippies	-11.8383
▁expand	-11.8383
▁depends	-11.8386
flo	-11.8389
▁coward	-11.8391
ional	-11.8396
▁luis	-11.8396
▁chamber	-11.8398
▁granger	-11.8398
▁guinness	-11.8398
▁miranda	-11.8398
▁physics	-11.8398
▁releasing	-11.8398
▁ritchie	-11.8398
▁sweden	-11.8398
▁repressed	-11.8398
▁sincerity	-11.8398
▁studied	-11.8398
▁swift	-11.8398
▁framing	-11.8398
▁lorre	-11.8398
▁existential	-11.8398
▁foremost	-11.8398
▁mitch	-11.8398
▁glamorous	-11.8398
▁montana	-11.8398
▁outdated	-11.8398
▁mitchum	-11.8399
▁morph	-11.8399
▁feather	-11.8399
▁cease	-11.8399
▁palance	-11.8399
▁owl	-11.8399
▁taut	-11.8399
▁valentine	-11.8401
▁werewolves	-11.8401
▁rice	-11.8402
▁scout	-11.8402
▁lighthearted	-11.8403
▁warhol	-11.8403
itude	-11.8404
▁aggressive	-11.8404
▁switches	-11.8404
▁stardom	-11.8404
▁alicia	-11.8404
▁crippled	-11.8404
▁debbie	-11.8404
angelo	-11.8407
▁inspirational	-11.8407
▁retro	-11.8407
▁vanity	-11.8409
▁conveniently	-11.841
rene	-11.841
▁similarity	-11.8412
▁tormented	-11.8418
▁lynn	-11.8418
▁wipe	-11.8421
brien	-11.8421
▁2:	-11.8421
▁weep	-11.8423
▁rewarding	-11.8424
▁stray	-11.8425
▁holland	-11.8427
▁neatly	-11.843
▁op	-11.8446
ata	-11.8446
▁skilled	-11.8448
lord	-11.8449
kov	-11.8449
▁marginal	-11.8451
▁races	-11.8454
▁moe	-11.8454
▁spelling	-11.8456
▁pilots	-11.8457
cute	-11.8459
▁chronicles	-11.8461
gus	-11.8469
character	-11.8469
▁nest	-11.847
▁beard	-11.8472
▁reviewed	-11.8474
atory	-11.8475
▁mae	-11.8481
▁evoke	-11.8481
sick	-11.8484
▁joint	-11.8492
▁flower	-11.8499
▁explode	-11.8499
▁indiana	-11.8506
▁judged	-11.8507
normal	-11.8508
▁accepting	-11.8515
count	-11.8516
▁mul	-11.8524
▁ramon	-11.8525
baby	-11.8526
▁parallels	-11.8526
hold	-11.8531
▁aboard	-11.8534
▁janet	-11.8537
▁uniforms	-11.8537
▁exploits	-11.8539
▁sensation	-11.854
▁refus	-11.854
utter	-11.854
▁(199	-11.854
▁declare	-11.8549
kids	-11.855
▁scored	-11.855
▁neglect	-11.855
▁traits	-11.8551
▁delicious	-11.8553
got	-11.8556
▁spi	-11.8557
▁interior	-11.8559
▁assumption	-11.8565
▁bimbo	-11.8565
▁lundgren	-11.8565
▁macabre	-11.8565
▁marvellous	-11.8565
▁mutual	-11.8565
▁pedestrian	-11.8565
▁replies	-11.8565
▁satellite	-11.8565
▁slept	-11.8565
▁chunk	-11.8565
▁cronenberg	-11.8565
▁ebay	-11.8565
▁spouse	-11.8565
esteem	-11.8565
▁nolte	-11.8565
▁stabbed	-11.8565
▁aircraft	-11.8565
▁stamp	-11.8565
▁surgeon	-11.8566
▁stern	-11.8566
▁rub	-11.8566
▁weaver	-11.8567
▁kurtz	-11.8567
▁mono	-11.8567
lift	-11.8567
▁plug	-11.8567
▁nonexistent	-11.8568
▁zoey	-11.8568
▁protection	-11.8568
▁hawke	-11.8569
▁claw	-11.857
instead	-11.857
▁vibe	-11.857
▁desk	-11.8571
▁leland	-11.8571
▁ladder	-11.8572
▁depths	-11.8573
vyn	-11.8574
▁growth	-11.8576
▁daylight	-11.8578
▁updated	-11.8578
ova	-11.858
▁boone	-11.858
▁porter	-11.8582
▁faded	-11.8582
▁comparable	-11.8585
▁benefits	-11.8586
level	-11.8588
▁employed	-11.8593
▁profoundly	-11.8593
scenes	-11.8595
yard	-11.8597
▁degenerate	-11.8598
▁bombs	-11.8599
▁seasoned	-11.8602
▁101	-11.8608
▁slaves	-11.8609
▁tightly	-11.8611
▁routines	-11.8613
▁resembl	-11.8615
▁cock	-11.8618
▁county	-11.8622
characterisation	-11.8622
▁gro	-11.8623
scream	-11.8628
▁users	-11.863
▁stores	-11.863
▁wisely	-11.8631
▁slot	-11.8634
▁kit	-11.864
▁rescued	-11.8647
▁suspected	-11.865
▁grandma	-11.8653
▁lena	-11.8654
▁ivan	-11.8674
▁errol	-11.8681
▁decid	-11.8685
adventure	-11.8689
stupid	-11.8689
pathetic	-11.8689
cheek	-11.869
drawn	-11.869
▁dern	-11.8693
▁gaps	-11.8694
mission	-11.8695
frame	-11.8696
▁manic	-11.87
▁goo	-11.8713
chy	-11.8714
tron	-11.8717
▁carr	-11.872
▁extend	-11.8721
mail	-11.8727
▁gestures	-11.8728
▁creek	-11.8734
▁estranged	-11.8734
▁stylized	-11.8734
▁blossom	-11.8734
▁capote	-11.8734
▁malkovich	-11.8734
▁sleeve	-11.8734
▁crosby	-11.8734
▁psychologist	-11.8734
▁sassy	-11.8734
▁travis	-11.8734
▁unwilling	-11.8734
▁psychedelic	-11.8734
▁reiser	-11.8734
▁essay	-11.8734
▁manifest	-11.8734
▁isolation	-11.8734
▁stefan	-11.8734
▁haines	-11.8734
▁carrot	-11.8734
▁championship	-11.8734
▁jose	-11.8734
▁nauseating	-11.8735
▁1959	-11.8735
▁adrian	-11.8735
▁ashley	-11.8735
▁cassie	-11.8735
▁breakfast	-11.8735
▁landmark	-11.8735
▁readers	-11.8735
▁madison	-11.8735
▁jules	-11.8735
▁adaption	-11.8736
▁stripper	-11.8737
▁grayson	-11.8737
▁spaceship	-11.8737
▁collaboration	-11.8737
▁guardian	-11.8738
▁license	-11.8739
▁electronic	-11.874
▁judgement	-11.874
▁peril	-11.8741
▁gina	-11.8741
▁dante	-11.8742
▁godard	-11.8743
▁jur	-11.8744
▁incidentally	-11.8744
▁brainless	-11.8746
▁offbeat	-11.8747
▁cartoonish	-11.8747
▁breast	-11.8748
rg	-11.8749
lot	-11.8753
▁raines	-11.8754
nz	-11.8755
▁pursued	-11.8762
▁lick	-11.8777
▁computers	-11.8783
none	-11.8784
▁geek	-11.8789
▁surfer	-11.8795
wash	-11.8796
▁accepts	-11.8799
pic	-11.88
▁hor	-11.8801
jim	-11.8813
▁cram	-11.8816
?!?	-11.8822
▁til	-11.8823
▁mouths	-11.8826
enchant	-11.8829
▁crashing	-11.8833
smith	-11.8833
▁packs	-11.8834
▁covering	-11.8835
original	-11.8847
▁proceed	-11.8849
????	-11.885
mph	-11.8851
▁landed	-11.8857
▁stalk	-11.886
definitely	-11.8861
hill	-11.8862
batman	-11.8864
fans	-11.887
baked	-11.8876
▁grabbe	-11.8877
▁unnatural	-11.8878
▁rep	-11.888
▁shifts	-11.888
▁smiles	-11.8882
▁glen	-11.8883
▁!!!	-11.8886
▁clouds	-11.8891
▁condemn	-11.8892
noir	-11.8892
alan	-11.8894
▁strict	-11.8895
▁verbal	-11.8895
▁198	-11.8899
aside	-11.8899
waiting	-11.89
▁bend	-11.8903
▁republic	-11.8905
▁fabric	-11.8906
▁brynner	-11.8907
▁controversy	-11.8907
▁dexter	-11.8907
▁eisenstein	-11.8907
▁escaping	-11.8907
▁feminine	-11.8907
▁kurosawa	-11.8907
▁lombard	-11.8907
▁pamela	-11.8907
▁schneider	-11.8907
▁squirm	-11.8907
▁unanswered	-11.8907
▁vintage	-11.8907
▁shatner	-11.8907
▁curtain	-11.8907
▁chemical	-11.8907
▁reckless	-11.8907
▁harvest	-11.8907
▁ordeal	-11.8907
▁mythology	-11.8907
▁perverse	-11.8907
▁rugby	-11.8907
▁jolie	-11.8908
▁nathan	-11.8908
▁marlon	-11.8908
▁homosexuality	-11.8909
▁ninety	-11.8909
▁pbs	-11.891
▁unconscious	-11.891
▁instructor	-11.8911
▁agony	-11.8911
chan	-11.8911
▁satisfaction	-11.8912
▁8/10.	-11.8912
▁chore	-11.8912
▁organized	-11.8912
▁believability	-11.8913
▁assembled	-11.8915
quin	-11.8915
▁characteristics	-11.8915
▁reminding	-11.8918
stein	-11.8919
▁gosh	-11.892
▁betrayed	-11.8923
▁wtf	-11.8927
▁dolph	-11.8929
▁colleagues	-11.8931
▁promoted	-11.8931
▁discussed	-11.8933
ying	-11.8935
▁sinking	-11.8938
▁;)	-11.894
▁stereotyped	-11.8943
clean	-11.8945
▁mirrors	-11.8946
▁commando	-11.8947
▁enable	-11.8947
▁forgetting	-11.8953
▁daytime	-11.8954
▁(193	-11.8954
vor	-11.8957
▁pegg	-11.8964
▁rightly	-11.8964
▁outcast	-11.8968
▁zu	-11.897
▁unusually	-11.8976
turned	-11.8978
▁customers	-11.8979
▁vehicles	-11.8983
eller	-11.8989
▁75	-11.8993
▁viva	-11.8998
ico	-11.9
▁depict	-11.9006
▁eg	-11.9008
gee	-11.9012
▁blamed	-11.9014
▁weaker	-11.9016
▁hateful	-11.9016
rod	-11.902
path	-11.9024
standing	-11.9031
▁wan	-11.9033
ghost	-11.9037
daniel	-11.9037
girlfriend	-11.9037
sweet	-11.9038
western	-11.9039
▁colours	-11.9041
.3.	-11.9042
▁rev	-11.9042
deep	-11.9044
around	-11.9046
▁dec	-11.9048
▁enthusiast	-11.9056
▁revolt	-11.9061
▁fre	-11.9066
▁enlist	-11.9068
▁sly	-11.9071
▁crank	-11.9074
▁rai	-11.9075
▁korea	-11.9079
▁admirable	-11.9082
▁bloke	-11.9082
▁celebrities	-11.9082
▁inclusion	-11.9082
▁liberties	-11.9082
▁oblivious	-11.9082
▁relating	-11.9082
▁relevance	-11.9082
▁unsympathetic	-11.9082
▁ustinov	-11.9082
▁whisper	-11.9082
▁cheerleader	-11.9082
▁ingrid	-11.9082
▁subdued	-11.9082
▁whiny	-11.9082
▁wendy	-11.9082
▁comprise	-11.9082
▁unconventional	-11.9082
▁miami	-11.9083
▁niven	-11.9083
▁1934	-11.9083
▁1974	-11.9083
▁1989	-11.9083
▁troopers	-11.9083
▁quasi	-11.9084
▁noteworthy	-11.9084
▁midget	-11.9084
▁straw	-11.9084
▁2008	-11.9086
▁sniper	-11.9087
!")	-11.9087
▁joanna	-11.9088
▁unsure	-11.9088
▁naughty	-11.909
▁fascist	-11.9091
▁gloria	-11.9091
▁publicity	-11.9092
▁coke	-11.9093
▁detectives	-11.9096
▁croc	-11.9097
▁chow	-11.9097
▁letdown	-11.9098
.7/10	-11.9099
▁fury	-11.91
hoe	-11.91
▁newer	-11.9103
▁eagerly	-11.9104
bur	-11.9104
▁subsequently	-11.9107
crime	-11.9109
▁stages	-11.911
▁factual	-11.9113
▁chucky	-11.9114
▁sheep	-11.9117
▁wherever	-11.9118
▁slippe	-11.9119
▁herbert	-11.9122
▁caper	-11.9127
zing	-11.913
▁dorm	-11.9131
fred	-11.9131
▁insults	-11.9136
▁iconic	-11.9141
▁smarter	-11.9143
main	-11.9146
▁apologize	-11.9146
▁polar	-11.9152
▁beau	-11.9153
hit	-11.9157
▁saddle	-11.9159
▁justified	-11.916
▁sour	-11.9163
roy	-11.9169
pack	-11.9174
▁sec	-11.9177
oy	-11.9177
hip	-11.9178
▁fishing	-11.918
▁boobs	-11.9182
▁archive	-11.9182
phil	-11.9195
▁plotting	-11.9198
▁frances	-11.9199
ipped	-11.9201
▁cleaning	-11.9204
▁rhyme	-11.9205
▁reject	-11.9207
inducing	-11.9215
secret	-11.9215
worst	-11.9215
flick	-11.9216
▁log	-11.9218
anyone	-11.922
▁robbers	-11.9222
▁(?)	-11.9225
▁boarding	-11.9225
▁ugh	-11.9226
sadly	-11.9227
ager	-11.9229
▁dove	-11.9236
▁stake	-11.9236
▁notices	-11.9239
▁legends	-11.9243
talking	-11.9257
▁excess	-11.9258
▁commend	-11.9259
▁sensual	-11.926
▁recreate	-11.9261
▁denouement	-11.9261
▁fishburne	-11.9261
▁fodder	-11.9261
▁fragile	-11.9261
▁galaxy	-11.9261
▁hungarian	-11.9261
▁lansbury	-11.9261
▁scheider	-11.9261
▁unsuccessful	-11.9261
▁anxious	-11.9261
▁carnage	-11.9261
▁demille	-11.9261
▁occult	-11.9261
▁marathon	-11.9261
▁shannon	-11.9261
▁puppy	-11.9261
▁ramsey	-11.9261
▁array	-11.9261
▁regina	-11.9261
▁unfamiliar	-11.9261
▁unattractive	-11.9261
▁slapped	-11.9261
▁discount	-11.9261
▁finney	-11.9261
▁moses	-11.9261
▁1973	-11.9262
ouch	-11.9262
▁lupino	-11.9262
▁1998	-11.9262
▁gillian	-11.9262
▁mabel	-11.9262
▁1994	-11.9263
▁darling	-11.9263
▁dandy	-11.9264
▁lionel	-11.9265
▁portman	-11.9266
▁verdict	-11.9266
▁polly	-11.9266
▁inherent	-11.9267
▁exclusively	-11.9267
▁brent	-11.9267
▁bearable	-11.9267
▁dungeon	-11.9268
▁absorbing	-11.9268
▁riff	-11.9268
▁astronaut	-11.9269
▁horny	-11.9273
▁interrupted	-11.9273
▁duff	-11.9274
▁heels	-11.9276
▁300	-11.9277
▁pas	-11.9279
▁cough	-11.928
▁crosses	-11.9283
▁stalking	-11.9283
▁clarke	-11.9284
▁hound	-11.9284
▁pushe	-11.9285
▁tremendously	-11.929
▁abbott	-11.9291
▁rosa	-11.9291
▁lance	-11.9292
▁defeated	-11.9294
▁refugee	-11.9301
▁farley	-11.9302
gene	-11.9303
▁rebels	-11.9304
▁wholesome	-11.9305
▁mist	-11.9305
▁jen	-11.9305
▁admired	-11.9306
▁fools	-11.9306
▁mah	-11.9308
▁bun	-11.9308
ggie	-11.9314
▁shameless	-11.9319
▁*1/2	-11.9322
▁cells	-11.9323
▁cultures	-11.9332
offs	-11.9333
▁raf	-11.9335
▁praised	-11.9335
▁benny	-11.9345
witted	-11.9347
goers	-11.9354
▁mysteriously	-11.9357
▁peaceful	-11.9358
piece	-11.9362
lady	-11.9362
kk	-11.9365
▁grain	-11.9369
robin	-11.9373
flat	-11.9377
▁truthful	-11.9378
shock	-11.9378
▁laws	-11.9382
▁battl	-11.9382
personal	-11.9388
break	-11.9389
stand	-11.9391
▁lt	-11.9392
rain	-11.9396
▁replay	-11.9396
dramatic	-11.9397
could	-11.9397
women	-11.9398
99	-11.9398
candy	-11.94
▁10/10.	-11.9403
track	-11.9405
realistic	-11.9408
▁preach	-11.9411
due	-11.9413
▁brush	-11.9415
▁howling	-11.9417
▁arguments	-11.9417
found	-11.9419
▁reports	-11.9424
pop	-11.9425
▁entrance	-11.9427
▁pervert	-11.9428
▁avenge	-11.9431
rose	-11.9433
▁anguish	-11.9442
▁barbarian	-11.9442
▁coppola	-11.9442
▁furniture	-11.9442
▁gravity	-11.9442
▁innuendo	-11.9442
▁pianist	-11.9442
▁unnerving	-11.9442
▁hurry	-11.9442
▁gundam	-11.9442
▁hostile	-11.9442
▁injury	-11.9442
▁klein	-11.9442
▁offense	-11.9442
▁stabbing	-11.9443
.3/10	-11.9443
▁shuttle	-11.9443
▁resonate	-11.9443
▁tokyo	-11.9443
▁scarier	-11.9443
▁antonioni	-11.9443
▁zany	-11.9444
▁replacement	-11.9444
▁christine	-11.9444
▁principals	-11.9445
▁depart	-11.9446
▁spies	-11.9448
▁emmy	-11.9448
▁undermine	-11.9449
▁sophie	-11.9449
▁auteur	-11.9449
▁heather	-11.9452
▁posey	-11.9453
▁vance	-11.9455
▁windows	-11.9455
▁acquired	-11.9456
cover	-11.9457
▁tide	-11.9457
▁cel	-11.9458
▁goldie	-11.9458
▁inserted	-11.9459
▁texture	-11.9465
▁wwe	-11.9465
▁villa	-11.9466
▁bashing	-11.9466
▁rosemary	-11.9468
▁romeo	-11.9469
▁addressed	-11.9469
▁vividly	-11.9469
▁additionally	-11.9469
▁progressed	-11.9469
▁jud	-11.9474
▁speaker	-11.9478
▁settled	-11.9478
▁bitten	-11.948
▁screenwriters	-11.9481
opera	-11.9485
▁glove	-11.9485
▁greene	-11.9486
▁conveyed	-11.949
▁photograph	-11.9491
▁pic	-11.9495
▁voiced	-11.9495
▁hyped	-11.95
▁boots	-11.95
▁officials	-11.9512
▁lap	-11.9513
▁leaders	-11.9514
elect	-11.9515
▁indifferent	-11.9516
▁gum	-11.9517
▁hmmm	-11.9518
9)	-11.9518
case	-11.952
ched	-11.9521
▁eater	-11.9522
▁flu	-11.9525
▁clinic	-11.9525
dling	-11.9526
mul	-11.9527
▁lucio	-11.953
▁nit	-11.9531
need	-11.9536
▁bury	-11.9538
introducing	-11.9544
▁30'	-11.9546
▁sentences	-11.9553
imo	-11.9561
▁mechanic	-11.9563
▁jew	-11.9564
lane	-11.9564
rough	-11.9567
ore	-11.9569
▁remakes	-11.9571
▁factors	-11.9572
doing	-11.9577
loving	-11.9584
▁associate	-11.9585
sided	-11.9586
team	-11.9591
▁sane	-11.9591
files	-11.9591
▁descend	-11.9596
▁sinks	-11.9597
▁attribute	-11.9602
▁tax	-11.9602
▁exc	-11.9604
▁tickets	-11.9606
▁temper	-11.9609
▁richards	-11.961
▁marines	-11.9612
▁manipulate	-11.9612
pun	-11.9613
wo	-11.9615
▁sufficient	-11.9616
mis	-11.9616
▁deliberate	-11.9621
▁holm	-11.9625
neill	-11.9625
▁incidents	-11.9627
scale	-11.9627
▁meteor	-11.9627
▁abstract	-11.9628
▁attenborough	-11.9628
▁carnival	-11.9628
▁component	-11.9628
▁confined	-11.9628
▁consequently	-11.9628
▁daffy	-11.9628
▁deputy	-11.9628
▁dynamite	-11.9628
▁monitor	-11.9628
▁rourke	-11.9628
▁rukh	-11.9628
▁strung	-11.9628
▁superfluous	-11.9628
▁turmoil	-11.9628
▁uncanny	-11.9628
▁venom	-11.9628
▁vigilante	-11.9628
▁ceiling	-11.9628
▁historian	-11.9628
▁escort	-11.9628
▁kinnear	-11.9628
▁enchanting	-11.9628
▁chamberlain	-11.9628
▁cycle	-11.9628
▁programming	-11.9628
▁seuss	-11.9628
▁blob	-11.9628
▁nutshell	-11.9628
▁kinski	-11.9628
▁pretension	-11.9628
▁bittersweet	-11.9628
▁murky	-11.9628
▁maximum	-11.9628
▁goodbye	-11.9628
▁arrangement	-11.9628
▁disappearance	-11.9628
▁fraud	-11.9628
▁clara	-11.9628
▁phase	-11.9629
▁teddy	-11.9629
▁clunky	-11.9629
▁vcr	-11.9629
▁courageous	-11.9629
▁1991	-11.963
ain	-11.963
▁sentimentality	-11.963
▁barbra	-11.963
▁salesman	-11.9631
▁chaney	-11.9631
▁skeptical	-11.9632
▁hopeful	-11.9632
▁infinitely	-11.9632
▁suppress	-11.9634
▁captivated	-11.9636
▁gown	-11.9637
▁fal	-11.9637
▁letterman	-11.9638
▁nuanced	-11.9638
▁collar	-11.9639
▁atomic	-11.9641
▁lurking	-11.9641
▁payoff	-11.9644
▁origins	-11.9644
▁frames	-11.9645
▁springer	-11.9645
▁juice	-11.9647
▁dino	-11.9647
▁kr	-11.9649
▁establishing	-11.9652
▁economic	-11.9655
tony	-11.9668
▁parking	-11.967
cape	-11.9675
▁inflict	-11.968
▁swearing	-11.9681
▁coaster	-11.9684
▁plants	-11.9692
.***	-11.9693
▁employees	-11.9695
▁dien	-11.9697
▁fleshed	-11.9702
lisa	-11.9703
▁dealers	-11.972
▁dock	-11.9731
lover	-11.9733
▁circles	-11.974
▁wee	-11.9743
eddie	-11.9743
▁elliot	-11.975
▁stoned	-11.975
▁goodman	-11.9762
▁rail	-11.9764
▁vet	-11.9766
ride	-11.9767
▁erase	-11.9771
sexual	-11.9771
through	-11.9771
basically	-11.9771
▁mol	-11.9772
until	-11.9772
cio	-11.9773
▁crook	-11.9775
▁colleague	-11.979
▁item	-11.9792
▁blur	-11.9794
▁flirt	-11.9795
tley	-11.9797
▁stereo	-11.9816
▁puzzling	-11.9816
▁complement	-11.9816
▁graffiti	-11.9816
▁horrified	-11.9816
▁impersonation	-11.9816
▁liberty	-11.9816
▁mccarthy	-11.9816
▁optimistic	-11.9816
▁recipe	-11.9816
▁retrieve	-11.9816
▁streak	-11.9816
▁timberlake	-11.9816
▁winchester	-11.9816
▁balloon	-11.9816
▁conceit	-11.9816
▁diversity	-11.9816
▁varied	-11.9816
▁whining	-11.9816
▁chalk	-11.9816
▁wrist	-11.9816
▁shelter	-11.9816
▁enigmatic	-11.9816
▁doyle	-11.9817
▁advertisement	-11.9817
▁hooper	-11.9817
▁terminal	-11.9817
▁spray	-11.9817
▁canyon	-11.9817
▁void	-11.9817
▁bodyguard	-11.9817
▁underwear	-11.9817
▁melville	-11.9818
▁accomplishment	-11.9818
▁mystical	-11.9818
▁paycheck	-11.9818
▁garland	-11.9818
▁hogan	-11.9819
▁intact	-11.9819
▁misunderstood	-11.9819
▁franklin	-11.982
▁likeable	-11.982
ucci	-11.982
▁bondage	-11.9821
▁lorenzo	-11.9823
▁rickman	-11.9823
aunt	-11.9824
▁melissa	-11.9824
▁download	-11.9824
▁evelyn	-11.9824
▁27	-11.9825
▁atlantic	-11.9825
▁hercules	-11.9826
▁sirk	-11.9826
▁mindset	-11.9827
▁distributed	-11.9827
▁fanny	-11.9827
▁noticeable	-11.9827
▁narrated	-11.9828
▁cody	-11.9828
▁filthy	-11.9828
▁divided	-11.9828
▁staging	-11.9828
▁skirt	-11.9829
▁crooked	-11.9831
▁bitchy	-11.9835
▁resulted	-11.9836
▁reid	-11.9838
▁politicians	-11.9839
▁maze	-11.9842
▁dashing	-11.9845
▁hark	-11.9846
▁martino	-11.9851
▁reflected	-11.9852
pick	-11.9853
▁attending	-11.9854
▁unfolding	-11.9854
▁rejects	-11.9856
ego	-11.9856
▁imply	-11.9858
▁sleepwalk	-11.987
▁explodes	-11.9873
ull	-11.9875
▁evokes	-11.9875
dir	-11.9881
▁sleepy	-11.9881
▁satanic	-11.989
▁tru	-11.9894
▁carell	-11.9896
cca	-11.9901
▁ideals	-11.9902
▁flo	-11.9902
▁graves	-11.9904
▁integra	-11.9909
▁revolv	-11.9913
▁fills	-11.9914
▁1000	-11.9921
▁wang	-11.9936
▁accounts	-11.9939
▁wai	-11.9948
roo	-11.9948
serious	-11.9952
cry	-11.9953
▁mold	-11.9954
▁sopranos	-11.9958
▁qu	-11.9961
meanwhile	-11.9963
saw	-11.9964
▁convict	-11.9967
▁sorrow	-11.9967
▁insights	-11.9971
▁slack	-11.9972
▁lambs	-11.9979
porn	-11.998
▁politician	-11.9986
▁consequence	-11.9987
grand	-11.999
round	-11.999
▁select	-11.999
▁nap	-11.9995
▁peers	-11.9997
▁thorn	-12.0002
liness	-12.0003
▁bass	-12.0004
▁slut	-12.0008
▁regime	-12.0008
▁association	-12.0009
▁chipmunk	-12.0009
▁cohesive	-12.0009
▁hypnotic	-12.0009
▁influential	-12.0009
▁nifty	-12.0009
▁norwegian	-12.0009
▁pursuing	-12.0009
▁arquette	-12.0009
▁clutter	-12.0009
▁moriarty	-12.0009
▁prevail	-12.0009
▁scorsese	-12.0009
▁analyze	-12.0009
▁zeta	-12.0009
▁collins	-12.0009
▁regain	-12.0009
▁erupt	-12.0009
▁reagan	-12.0009
▁representative	-12.0009
▁flew	-12.0009
▁lumet	-12.0009
▁sundance	-12.0009
▁lizard	-12.0009
▁falcon	-12.0009
▁gam	-12.0009
▁devour	-12.0009
▁motif	-12.0009
▁brazilian	-12.0009
▁potent	-12.001
▁investment	-12.001
▁patriotic	-12.001
▁sunset	-12.001
▁custer	-12.001
▁drawback	-12.001
▁langdon	-12.001
▁underdeveloped	-12.001
▁zane	-12.0011
▁lump	-12.0011
▁pickford	-12.0011
disc	-12.0011
▁revel	-12.0012
▁deadpan	-12.0013
▁chef	-12.0014
▁193	-12.0015
▁secure	-12.0015
▁dopey	-12.0015
▁1978	-12.0015
▁update	-12.0016
▁effortlessly	-12.0016
▁salvage	-12.0016
▁glenda	-12.0016
▁villainous	-12.0016
▁tacked	-12.0018
▁raven	-12.0019
▁exam	-12.0021
▁outsider	-12.0021
▁28	-12.0022
▁campus	-12.0022
zed	-12.0023
▁mice	-12.0026
▁relaxed	-12.0033
state	-12.0033
▁barber	-12.0038
▁lola	-12.0039
▁uma	-12.0039
▁realities	-12.0041
▁followers	-12.0041
▁pierre	-12.0042
▁louise	-12.0047
eric	-12.0049
▁wartime	-12.0053
▁seriousness	-12.0053
▁damaged	-12.0056
natured	-12.0061
▁longing	-12.0063
return	-12.0067
▁employer	-12.0068
▁flows	-12.007
starring	-12.0072
▁interviewed	-12.0077
oooo	-12.0079
▁affects	-12.008
▁paints	-12.0081
▁midst	-12.0083
nc	-12.0091
▁shockingly	-12.0093
cum	-12.0093
▁brazil	-12.0094
populated	-12.01
▁strangle	-12.01
▁shocks	-12.01
▁anyhow	-12.0107
▁shakes	-12.0115
▁weirdo	-12.0125
pet	-12.0126
▁charms	-12.0129
▁mic	-12.0129
ept	-12.0135
eth	-12.0139
inter	-12.0141
wee	-12.0148
▁qua	-12.0154
related	-12.0157
christian	-12.0159
short	-12.016
erotic	-12.016
jeff	-12.0161
trash	-12.0162
cinema	-12.0164
small	-12.017
voiced	-12.017
▁shameful	-12.0172
liance	-12.0183
▁churn	-12.0184
▁client	-12.0185
▁vent	-12.0189
▁diamonds	-12.0191
▁inherit	-12.0191
▁immense	-12.0193
▁moran	-12.0195
▁invent	-12.0204
▁gerald	-12.0204
▁romania	-12.0204
▁cunning	-12.0204
▁acquaintance	-12.0205
▁centuries	-12.0205
▁circa	-12.0205
▁cocaine	-12.0205
▁coyote	-12.0205
▁ghastly	-12.0205
▁inconsistencies	-12.0205
▁kristofferson	-12.0205
▁nielsen	-12.0205
▁poitier	-12.0205
▁redgrave	-12.0205
▁sabotage	-12.0205
▁spontaneous	-12.0205
▁grisly	-12.0205
▁melody	-12.0205
▁temptation	-12.0205
▁plodding	-12.0205
▁henson	-12.0205
▁ample	-12.0205
▁vault	-12.0205
▁rousing	-12.0205
▁sought	-12.0205
▁1957	-12.0205
▁hannah	-12.0206
▁marlow	-12.0206
▁shady	-12.0206
▁beef	-12.0207
▁juliette	-12.0207
▁hawn	-12.0207
▁redford	-12.0208
▁finishing	-12.0209
▁debra	-12.0209
▁screened	-12.0211
▁erika	-12.0211
▁bigfoot	-12.0213
▁readily	-12.0214
▁lindsay	-12.0214
ryan	-12.0215
▁irritated	-12.0215
gro	-12.0217
▁deliciously	-12.0218
▁domain	-12.0221
brian	-12.0221
▁skateboarding	-12.0222
▁believer	-12.0223
▁yearning	-12.0228
▁lament	-12.0229
▁maintains	-12.0231
▁lung	-12.0231
▁garr	-12.0233
▁honey	-12.0235
▁upbeat	-12.0236
▁sells	-12.0238
▁lapse	-12.0238
▁photographs	-12.0239
kick	-12.0239
▁ranting	-12.0241
▁expertly	-12.0243
▁lighten	-12.0245
▁aided	-12.0246
▁scratching	-12.025
▁cheering	-12.025
▁stable	-12.0251
▁placement	-12.0252
▁nell	-12.0254
▁flea	-12.0256
▁bout	-12.0259
▁sporting	-12.0262
▁vow	-12.0263
▁solved	-12.0264
▁revolve	-12.0271
▁pans	-12.0273
▁bombed	-12.0288
▁flashing	-12.0289
▁hunted	-12.0289
chick	-12.0291
▁shan	-12.0291
▁recite	-12.0294
pie	-12.0304
▁brag	-12.0308
▁gates	-12.0314
jokes	-12.0325
▁cris	-12.0327
▁rounds	-12.0328
plots	-12.0329
dale	-12.0335
▁sock	-12.0338
▁ambitions	-12.0338
▁hug	-12.0341
etta	-12.0348
wreck	-12.0359
dirty	-12.036
kevin	-12.0361
▁thi	-12.0362
keep	-12.0372
fair	-12.0374
▁counting	-12.0375
▁summe	-12.0376
▁whip	-12.038
▁respects	-12.0384
pal	-12.0384
▁products	-12.0386
▁jab	-12.0387
▁orphan	-12.0389
une	-12.039
seen	-12.0393
▁literal	-12.0393
mouthed	-12.0395
▁attic	-12.0401
▁aristocrat	-12.0403
▁ambiguity	-12.0405
▁decency	-12.0405
▁detroit	-12.0405
▁district	-12.0405
▁economy	-12.0405
▁identified	-12.0405
▁mermaid	-12.0405
▁policy	-12.0405
▁pompous	-12.0405
▁thirties	-12.0405
▁atrocity	-12.0405
▁interlude	-12.0405
▁kaufman	-12.0405
▁shriek	-12.0405
▁aftermath	-12.0405
▁misfit	-12.0405
▁lennon	-12.0405
▁shearer	-12.0405
▁snappy	-12.0405
▁padding	-12.0405
▁entries	-12.0405
reservation	-12.0405
▁swanson	-12.0405
▁posse	-12.0406
▁roach	-12.0406
▁feud	-12.0406
▁1977	-12.0406
▁knightley	-12.0407
▁progression	-12.0407
▁massey	-12.0407
▁gloomy	-12.0408
▁ramones	-12.0408
▁battlefield	-12.0409
gary	-12.0409
▁infant	-12.0409
▁unclear	-12.041
▁flames	-12.0411
▁rebecca	-12.0412
▁chocolate	-12.0412
dell	-12.0413
▁data	-12.0413
▁tailor	-12.0414
▁decor	-12.0415
rip	-12.0417
▁arranged	-12.0422
▁neglected	-12.0422
▁overboard	-12.0427
▁smoothly	-12.0432
▁puzzled	-12.0434
▁versa	-12.0435
rex	-12.0438
▁mocking	-12.0438
▁puri	-12.0439
▁stupidest	-12.044
▁peek	-12.0441
▁drawings	-12.0441
▁lange	-12.0442
▁della	-12.0443
▁comp	-12.0444
▁affecting	-12.045
pain	-12.0457
▁mur	-12.0469
forget	-12.0476
▁crowe	-12.0476
▁insulted	-12.0477
ural	-12.0479
working	-12.0482
▁sleeper	-12.0485
▁85	-12.0485
throw	-12.0487
etti	-12.0494
▁reruns	-12.0501
▁ads	-12.0503
▁flowing	-12.0508
▁entertainer	-12.0509
▁dru	-12.051
aker	-12.0513
▁loos	-12.0515
alter	-12.0516
▁grounds	-12.0521
ddl	-12.0531
45	-12.0532
▁cliched	-12.0534
▁theatres	-12.0538
mary	-12.055
mouth	-12.055
green	-12.0552
▁cheaper	-12.0556
▁seats	-12.0557
▁peep	-12.056
actress	-12.0561
▁ninjas	-12.0561
daughter	-12.0563
centered	-12.0563
brilliant	-12.0563
freak	-12.0563
▁temp	-12.0564
warning	-12.0565
▁symbols	-12.0568
▁joining	-12.0568
brain	-12.057
person	-12.0571
telling	-12.0573
find	-12.0574
rim	-12.058
meaning	-12.0582
▁7/10.	-12.0584
▁forties	-12.0587
bil	-12.0591
▁construct	-12.0592
cult	-12.0593
▁qualifie	-12.0593
▁eliminate	-12.0593
▁determine	-12.0593
▁permanent	-12.0597
▁counterpart	-12.0598
▁sr	-12.0598
▁restore	-12.0599
▁kir	-12.06
▁hunk	-12.0601
▁spill	-12.0601
▁branch	-12.0606
▁chronological	-12.0609
▁bartender	-12.0609
▁capacity	-12.0609
▁determination	-12.0609
▁dialect	-12.0609
▁hilary	-12.0609
▁inaccuracies	-12.0609
▁jagger	-12.0609
▁kutcher	-12.0609
▁meredith	-12.0609
▁neutral	-12.0609
▁obscurity	-12.0609
▁olympic	-12.0609
▁phoenix	-12.0609
▁rookie	-12.0609
▁thurman	-12.0609
▁combining	-12.0609
▁beetle	-12.0609
▁bennett	-12.0609
▁suave	-12.0609
▁handicapped	-12.0609
▁cancelled	-12.0609
▁division	-12.0609
▁selleck	-12.0609
▁rogue	-12.0609
▁kahn	-12.0609
▁captive	-12.0609
▁harlow	-12.0609
▁robbed	-12.0609
▁groundbreaking	-12.0609
▁flipping	-12.061
▁extract	-12.061
▁animators	-12.061
▁burden	-12.061
▁stripped	-12.061
▁dudley	-12.061
▁vega	-12.061
▁genetic	-12.061
▁lonesome	-12.061
▁mentor	-12.061
▁republican	-12.0611
ipping	-12.0612
▁edith	-12.0612
▁frail	-12.0612
▁stating	-12.0613
▁terrorism	-12.0614
▁sketches	-12.0614
▁uptight	-12.0615
▁spotted	-12.0615
▁alexandra	-12.0616
▁sway	-12.0616
▁predictably	-12.0617
▁spotlight	-12.0619
▁digging	-12.0619
▁faye	-12.0619
▁proclaim	-12.062
▁homo	-12.062
▁closure	-12.0623
▁babes	-12.0623
▁puke	-12.0623
▁reviewing	-12.0624
▁evolved	-12.0628
▁celebrated	-12.0628
▁clad	-12.063
▁preaching	-12.0632
▁toxic	-12.0632
▁ricky	-12.0633
▁rolls	-12.0638
▁cad	-12.0644
▁predicted	-12.0647
amato	-12.0647
▁characteristic	-12.0648
mean	-12.0651
▁chiller	-12.0652
▁drone	-12.0654
▁cutter	-12.0661
▁armor	-12.0662
▁complained	-12.0662
sad	-12.0664
▁attain	-12.0665
▁pointing	-12.0669
▁linear	-12.0672
▁camping	-12.0675
▁georgia	-12.0676
wh	-12.0677
▁prim	-12.0684
gel	-12.0684
▁produces	-12.0685
▁fetched	-12.0686
▁marketed	-12.0689
▁laying	-12.0693
▁casey	-12.0703
▁witnessing	-12.0703
▁4)	-12.0709
front	-12.0709
▁cater	-12.0714
▁locke	-12.0715
▁dia	-12.0715
omi	-12.0716
▁executives	-12.0719
▁crossed	-12.0727
▁sucking	-12.0732
smart	-12.0733
▁spr	-12.0742
nan	-12.0746
▁rigg	-12.0753
release	-12.0756
wl	-12.0756
gard	-12.0759
ility	-12.076
▁eggs	-12.0762
▁mia	-12.0763
▁cracker	-12.0768
enter	-12.0771
▁pope	-12.0771
average	-12.0772
18	-12.078
▁ignor	-12.0783
▁steele	-12.0788
▁achieves	-12.0789
▁rea	-12.0789
▁sleeps	-12.079
fat	-12.0795
▁glow	-12.0801
▁tolerate	-12.0802
▁interrupt	-12.0803
bear	-12.0804
▁woke	-12.0806
lab	-12.0808
▁plum	-12.0809
▁tub	-12.0811
▁mobster	-12.0812
▁insomnia	-12.0814
▁terr	-12.0816
▁retrospect	-12.0816
▁abundance	-12.0817
▁agonizing	-12.0817
▁custody	-12.0817
▁detached	-12.0817
▁diabolical	-12.0817
▁eccleston	-12.0817
▁fugitive	-12.0817
▁keanu	-12.0817
▁luxury	-12.0817
▁masquerad	-12.0817
▁mclaglen	-12.0817
▁perpetual	-12.0817
▁puerto	-12.0817
▁rathbone	-12.0817
▁suicidal	-12.0817
▁vapid	-12.0817
▁vaudeville	-12.0817
▁yourselves	-12.0817
▁firth	-12.0817
▁reception	-12.0817
▁reckon	-12.0817
▁supplie	-12.0817
▁paragraph	-12.0817
▁cement	-12.0817
▁corbett	-12.0817
▁incestuous	-12.0817
▁perkins	-12.0817
▁witchcraft	-12.0817
▁slug	-12.0817
▁clarity	-12.0817
▁gallery	-12.0817
▁denver	-12.0817
▁therapy	-12.0818
▁rodney	-12.0818
▁hijack	-12.0818
▁resistance	-12.0818
▁iranian	-12.0818
▁naval	-12.0819
▁crass	-12.0819
▁shooter	-12.0819
▁popped	-12.0819
▁coburn	-12.0819
▁oddball	-12.082
▁strive	-12.082
▁plantation	-12.0822
▁runaway	-12.0822
▁cape	-12.0823
▁magician	-12.0826
▁flame	-12.0826
▁reserved	-12.0826
▁hometown	-12.0827
mba	-12.0828
▁stephanie	-12.0828
▁controlling	-12.0828
▁phantasm	-12.0828
▁isabel	-12.083
▁brow	-12.083
▁latino	-12.0832
▁encourages	-12.0832
▁omen	-12.0833
▁stalked	-12.0835
▁buttons	-12.0836
▁munch	-12.0838
▁adequately	-12.0844
▁chang	-12.0845
▁crooks	-12.0847
start	-12.0851
▁labeled	-12.0852
▁filmography	-12.0852
▁berry	-12.0854
▁outrageously	-12.0855
ami	-12.0864
graphic	-12.0866
▁climbing	-12.0867
▁transitions	-12.0869
▁roughly	-12.0875
believe	-12.0876
▁hatch	-12.0882
bob	-12.0885
vinnie	-12.0886
▁encountered	-12.0892
▁dreadfully	-12.0893
brook	-12.0894
▁bats	-12.0898
▁outlook	-12.0907
▁nana	-12.0909
▁rounded	-12.0911
▁dynamics	-12.0911
▁papers	-12.0911
▁immigrants	-12.0912
▁amateurs	-12.0917
▁jude	-12.0923
▁cus	-12.0927
▁depictions	-12.0928
▁mastermind	-12.0935
aaa	-12.0939
vid	-12.0939
▁existing	-12.0944
cul	-12.0946
▁listened	-12.0947
▁ongoing	-12.0949
▁spoiling	-12.095
▁slips	-12.0951
▁weekly	-12.0952
▁cord	-12.0954
▁spoofs	-12.0956
lots	-12.0964
▁medal	-12.0967
▁ratio	-12.0968
into	-12.0968
▁alot	-12.0969
▁veterans	-12.097
sister	-12.0972
▁marsh	-12.0979
▁marcel	-12.098
▁dug	-12.098
▁bait	-12.0983
apocalyptic	-12.0984
national	-12.0984
halloween	-12.0984
thomas	-12.0984
political	-12.0984
wrote	-12.0985
street	-12.0985
meet	-12.0987
respect	-12.0987
actresses	-12.0988
▁sheets	-12.0988
chuck	-12.0988
▁excellently	-12.0991
▁slash	-12.0993
living	-12.0996
▁puns	-12.0997
released	-12.1
someone	-12.1003
▁eyed	-12.1006
▁digest	-12.1007
oops	-12.1009
▁9/10.	-12.101
▁mun	-12.1011
▁convert	-12.1015
▁cancel	-12.1017
▁197	-12.1018
▁instances	-12.102
▁bolt	-12.1022
▁assumes	-12.1027
▁congress	-12.1027
▁prank	-12.1028
▁bomber	-12.1028
▁avail	-12.1029
▁scandal	-12.1029
▁academic	-12.103
▁chaotic	-12.103
▁dedication	-12.103
▁edmund	-12.103
▁espionage	-12.103
▁fiasco	-12.103
▁huppert	-12.103
▁impeccable	-12.103
▁irrational	-12.103
▁lieutenant	-12.103
▁pivotal	-12.103
▁preparation	-12.103
▁sensibility	-12.103
▁succumb	-12.103
▁sydow	-12.103
▁transvestite	-12.103
▁daisy	-12.103
▁endeavor	-12.103
▁rouge	-12.103
▁sentinel	-12.103
▁shelves	-12.103
▁sparse	-12.103
▁honeymoon	-12.103
▁abroad	-12.103
▁railroad	-12.103
▁videotape	-12.103
▁cotton	-12.103
▁brunette	-12.103
▁obscene	-12.103
▁basil	-12.103
▁mcdonald	-12.103
▁bias	-12.103
▁cockney	-12.103
▁snail	-12.103
▁traumatic	-12.103
▁barrier	-12.103
▁stomp	-12.1031
▁voting	-12.1031
▁jodie	-12.1031
▁fellini	-12.1031
▁zealand	-12.1032
▁borderline	-12.1032
▁1975	-12.1032
▁campfire	-12.1032
atic	-12.1033
▁stoop	-12.1033
▁environmental	-12.1034
▁villagers	-12.1034
▁midler	-12.1034
▁glossy	-12.1036
▁kathryn	-12.1036
▁staggering	-12.1037
▁passive	-12.1037
▁loretta	-12.1037
▁dung	-12.1038
▁scattered	-12.1038
lessness	-12.1038
meter	-12.1039
▁anticipated	-12.1039
▁rio	-12.1039
▁veronica	-12.1039
▁lava	-12.104
▁sarcasm	-12.1042
▁agreement	-12.1043
wig	-12.1044
▁occupied	-12.1044
▁momentum	-12.1044
▁understandably	-12.1044
▁courtes	-12.1045
▁mortal	-12.1046
▁manipulated	-12.1048
▁condemned	-12.1048
change	-12.1049
▁grandpa	-12.1053
▁officially	-12.1057
▁sack	-12.1063
▁springs	-12.1063
▁conn	-12.1065
77	-12.1067
rog	-12.1068
▁sexist	-12.1069
▁madman	-12.107
▁chuckles	-12.1073
▁pap	-12.1074
▁frontal	-12.1076
dad	-12.1078
▁inducing	-12.1085
▁demonstrated	-12.1087
▁hinted	-12.109
▁fable	-12.1096
▁tuned	-12.1098
usually	-12.1098
▁chin	-12.1099
ctor	-12.1101
▁commanding	-12.1101
▁prayer	-12.1103
▁elliott	-12.1105
hear	-12.1107
▁begun	-12.1107
▁transforms	-12.1112
▁crashed	-12.1117
▁monologues	-12.1118
▁servants	-12.1122
▁breathing	-12.1124
▁obstacles	-12.1128
▁cy	-12.113
tory	-12.1136
mac	-12.1143
▁mcg	-12.115
ige	-12.1151
▁discipline	-12.1158
▁squeeze	-12.1168
▁deed	-12.1177
▁threads	-12.119
▁barr	-12.1192
sort	-12.1198
▁gunfight	-12.1198
present	-12.1199
▁principles	-12.12
▁shah	-12.12
▁rivers	-12.12
▁hadley	-12.12
excellent	-12.1202
wild	-12.1202
charles	-12.1203
▁joyce	-12.1205
brand	-12.1207
rising	-12.1207
cock	-12.1211
osa	-12.122
cie	-12.122
▁sg	-12.1222
▁presume	-12.1232
▁finance	-12.1232
▁compromise	-12.1232
▁thereby	-12.1233
▁precise	-12.1236
▁increasing	-12.124
▁lastly	-12.1246
▁amuse	-12.1247
▁buffoon	-12.1247
▁audrey	-12.1247
▁blaxploitation	-12.1247
▁comrade	-12.1247
▁constraints	-12.1247
▁excellence	-12.1247
▁exorcism	-12.1247
▁overwrought	-12.1247
▁prolonged	-12.1247
▁pupil	-12.1247
▁quigley	-12.1247
▁rebellion	-12.1247
▁recurring	-12.1247
▁sociopath	-12.1247
▁unnecessarily	-12.1247
▁violin	-12.1247
▁asterix	-12.1247
▁lurid	-12.1247
▁butterfly	-12.1247
▁irwin	-12.1247
▁zucco	-12.1247
▁bachchan	-12.1247
▁nominee	-12.1247
▁goddess	-12.1247
▁sample	-12.1247
▁marlene	-12.1248
▁gym	-12.1248
▁mcqueen	-12.1248
▁raimi	-12.1248
▁boundaries	-12.1248
▁assistance	-12.1248
▁banana	-12.1248
▁vivian	-12.1248
▁undertone	-12.1248
▁throne	-12.1248
▁enduring	-12.1248
▁openly	-12.1248
▁revival	-12.1248
▁uncertain	-12.1248
▁firefighter	-12.1248
▁tissue	-12.1248
▁sharon	-12.1248
▁1985	-12.1248
▁subconscious	-12.1248
▁interplay	-12.1249
▁skipped	-12.1249
▁shack	-12.1249
▁edwards	-12.1249
▁joking	-12.1249
▁patent	-12.1249
▁diary	-12.125
▁drugged	-12.125
▁consciousness	-12.125
▁elementary	-12.1251
▁charity	-12.1251
▁scum	-12.1251
▁disconnected	-12.1252
▁denied	-12.1253
▁waist	-12.1254
▁govinda	-12.1254
▁baffled	-12.1254
▁distinction	-12.1254
brow	-12.1254
▁ditch	-12.1254
▁forgiveness	-12.1254
▁miraculously	-12.1255
▁hardened	-12.1255
▁coleman	-12.1256
▁arkin	-12.1258
▁robotic	-12.126
▁hispanic	-12.126
▁relentlessly	-12.1263
▁establishment	-12.1264
▁succession	-12.1267
▁destructive	-12.1268
▁confirmed	-12.1268
▁downward	-12.1269
▁trier	-12.127
river	-12.1272
▁strained	-12.1272
pm	-12.1275
▁tess	-12.1275
call	-12.1275
fed	-12.1277
▁criticized	-12.1279
▁bosses	-12.1279
complete	-12.1282
▁raging	-12.1282
▁severed	-12.1285
▁herman	-12.129
▁gathering	-12.1291
lop	-12.1295
▁freaked	-12.1297
▁endured	-12.13
▁hardest	-12.1303
▁spinal	-12.1309
▁barbie	-12.1312
▁lions	-12.1314
7)	-12.1318
iii	-12.1321
▁masked	-12.1327
▁sonny	-12.1327
jan	-12.1343
pec	-12.1351
▁creeps	-12.1353
▁halt	-12.1354
west	-12.1356
▁stoner	-12.1363
oli	-12.1363
▁joker	-12.1363
▁techno	-12.1365
workers	-12.1365
bro	-12.1366
▁talentless	-12.1369
▁searched	-12.1372
rag	-12.1374
walk	-12.1377
▁dunn	-12.1377
hog	-12.138
▁95	-12.1384
▁amoral	-12.1384
▁yeti	-12.139
formed	-12.1403
▁proportions	-12.1407
▁accus	-12.1415
▁sunk	-12.142
surprise	-12.1424
children	-12.1424
midnight	-12.1424
critic	-12.1424
police	-12.1425
enjoy	-12.1425
▁nuances	-12.1427
during	-12.1427
▁pastor	-12.1428
▁triple	-12.1429
▁drown	-12.1435
▁rapes	-12.1436
▁cousins	-12.1443
kate	-12.1444
▁slower	-12.1448
bridge	-12.1449
▁bleed	-12.1449
▁kh	-12.145
breed	-12.1452
▁cheers	-12.1454
▁privilege	-12.1454
▁pod	-12.1454
whe	-12.1454
▁draft	-12.1455
▁alba	-12.1457
▁continuous	-12.1458
billy	-12.146
gold	-12.146
incarnation	-12.1467
semblance	-12.1467
▁incidental	-12.1467
▁detect	-12.1469
▁micro	-12.1469
▁pranks	-12.1469
▁norma	-12.1469
▁caribbean	-12.1469
▁categories	-12.1469
▁cheadle	-12.1469
▁culprit	-12.1469
▁devotion	-12.1469
▁flamboyant	-12.1469
▁henchman	-12.1469
▁melancholy	-12.1469
▁minnelli	-12.1469
▁nightmarish	-12.1469
▁rampant	-12.1469
▁spectrum	-12.1469
▁suzanne	-12.1469
▁sylvia	-12.1469
▁wahlberg	-12.1469
▁anthology	-12.1469
▁avenue	-12.1469
▁colony	-12.1469
▁groove	-12.1469
▁soderbergh	-12.1469
▁unstable	-12.1469
▁implies	-12.1469
▁federal	-12.1469
▁parrot	-12.1469
▁seattle	-12.147
▁helmet	-12.147
▁bunuel	-12.147
▁drool	-12.147
▁thespian	-12.147
▁laboratory	-12.147
▁reprise	-12.147
▁infectious	-12.147
▁exploitative	-12.147
▁fathom	-12.147
▁chock	-12.147
▁compassionate	-12.147
▁devious	-12.147
▁crane	-12.147
▁diving	-12.147
▁stirring	-12.147
▁courtroom	-12.147
▁chimp	-12.147
▁esther	-12.147
▁motel	-12.1471
▁distinctive	-12.1471
▁keyboard	-12.1471
▁envy	-12.1471
▁angelina	-12.1471
▁plod	-12.1471
▁sidewalk	-12.1471
▁caroline	-12.1472
▁viking	-12.1472
▁truman	-12.1473
▁mills	-12.1473
▁patrol	-12.1473
▁bullies	-12.1474
▁volunteer	-12.1474
▁brendan	-12.1475
▁lightning	-12.1475
▁nina	-12.1476
▁kristin	-12.1476
▁punchline	-12.1476
▁grandson	-12.1477
▁ellis	-12.1478
▁gesture	-12.1478
▁nash	-12.1479
eeee	-12.1481
▁fantastically	-12.1482
▁awareness	-12.1482
▁stella	-12.1483
▁indulge	-12.1483
▁drowned	-12.1484
▁rockne	-12.1484
▁nanny	-12.1487
▁shiny	-12.1489
▁patriot	-12.149
▁vh	-12.1491
▁nerdy	-12.1491
▁coolest	-12.1492
▁pip	-12.1492
▁worm	-12.1493
▁paths	-12.1495
▁restraint	-12.1496
▁boogie	-12.1496
▁buffy	-12.1497
▁chev	-12.1499
▁sickness	-12.1499
lty	-12.15
▁vie	-12.15
▁gathered	-12.1501
▁'50	-12.1502
▁menu	-12.1504
▁oriented	-12.1507
▁significantly	-12.1516
▁maintained	-12.1517
hir	-12.1521
▁duel	-12.1527
iled	-12.1532
▁indulgent	-12.1532
iya	-12.1534
boiled	-12.1534
soon	-12.1536
▁dispose	-12.154
▁insanely	-12.1542
▁curiously	-12.1543
70	-12.1544
▁worrying	-12.1548
▁hoo	-12.1549
95	-12.155
▁dragons	-12.1553
▁demi	-12.1561
▁billion	-12.1561
animator	-12.1565
▁lesbians	-12.1566
▁ple	-12.1569
▁troop	-12.1569
▁combs	-12.157
▁sacrifices	-12.1576
▁cent	-12.1584
kid	-12.1591
▁observations	-12.1597
▁services	-12.1607
▁coal	-12.1607
▁headline	-12.1607
▁bliss	-12.1609
print	-12.1611
▁repeats	-12.1617
▁mug	-12.1623
!!)	-12.1625
▁achievements	-12.1626
▁hale	-12.1626
▁civilians	-12.1628
▁telly	-12.1629
▁rivals	-12.1633
▁mixe	-12.1635
natural	-12.1637
▁leak	-12.1645
things	-12.1646
developed	-12.1646
nut	-12.1648
together	-12.1651
titanic	-12.1651
stephen	-12.1651
bruce	-12.1651
scott	-12.1651
charlie	-12.1652
▁overacts	-12.1652
catch	-12.1657
handedly	-12.1658
▁kor	-12.1661
▁mormons	-12.1662
bury	-12.1666
▁yank	-12.1669
▁realises	-12.1673
▁darkly	-12.1675
huh	-12.1678
▁whack	-12.1682
▁polite	-12.1685
▁alleged	-12.1685
▁prompt	-12.1685
▁gel	-12.1686
▁rocker	-12.1687
among	-12.1688
▁contradict	-12.1688
▁reunite	-12.1691
▁kerr	-12.1692
▁vic	-12.1695
▁snob	-12.1696
▁automatic	-12.1697
▁import	-12.1697
▁applause	-12.1697
▁deception	-12.1697
▁demeanor	-12.1697
▁goldblum	-12.1697
▁henchmen	-12.1697
▁imprisoned	-12.1697
▁nevsky	-12.1697
▁poirot	-12.1697
▁reinforce	-12.1697
▁rhett	-12.1697
▁schrader	-12.1697
▁sylvester	-12.1697
▁whimsical	-12.1697
▁zellweger	-12.1697
▁cursing	-12.1697
▁gardner	-12.1697
▁hoodlum	-12.1697
▁othello	-12.1697
▁unremarkable	-12.1697
▁wrath	-12.1697
▁escalat	-12.1697
▁houston	-12.1697
▁overtones	-12.1697
▁prestig	-12.1697
▁transparent	-12.1697
▁mustache	-12.1697
▁biological	-12.1697
▁colbert	-12.1697
▁laurie	-12.1697
looney	-12.1697
▁external	-12.1697
▁kinky	-12.1697
▁ernie	-12.1697
▁backwoods	-12.1697
▁darren	-12.1698
▁monday	-12.1698
▁indicate	-12.1698
▁dismay	-12.1698
▁misfire	-12.1698
▁sixteen	-12.1698
dressed	-12.1698
▁spinning	-12.1698
▁aspire	-12.1698
▁attendant	-12.1698
ivity	-12.1698
▁crab	-12.1698
▁lodge	-12.1699
▁engagement	-12.1699
▁gosling	-12.1699
▁rudy	-12.1699
▁retelling	-12.17
▁groom	-12.1701
▁cobra	-12.1701
▁sigh	-12.1701
▁rewind	-12.1701
▁breathless	-12.1702
▁inmates	-12.1704
him	-12.1704
▁cuban	-12.1704
▁grating	-12.1704
▁announced	-12.1705
▁dramatically	-12.1706
▁backyard	-12.1706
illian	-12.1707
▁chopper	-12.1707
▁timmy	-12.1708
▁muni	-12.1708
▁hellraiser	-12.1709
▁antwone	-12.1709
▁omar	-12.1709
▁motivated	-12.1709
▁wilde	-12.1709
▁perceived	-12.171
▁elmer	-12.1711
▁woven	-12.1711
▁awakening	-12.1712
▁graduation	-12.1716
▁reluctantly	-12.1717
▁expanded	-12.1717
▁downtown	-12.1718
von	-12.1718
▁marcus	-12.1718
hart	-12.1718
▁wonderland	-12.1719
▁hail	-12.172
▁tara	-12.1721
▁distinctly	-12.1722
▁crispin	-12.1723
▁dominated	-12.1723
▁stuffed	-12.1723
▁commenter	-12.1725
▁drifter	-12.1726
▁vu	-12.1726
▁enormously	-12.1727
comic	-12.1728
▁rendering	-12.1728
ua	-12.1738
▁borders	-12.1738
touch	-12.1739
▁sentenced	-12.1739
▁seth	-12.1739
▁overnight	-12.174
▁ariel	-12.1741
▁loner	-12.1744
▁juan	-12.1745
▁wrenching	-12.1747
▁nickname	-12.1748
kee	-12.1748
▁switching	-12.175
?!?!	-12.1752
▁pressed	-12.1753
▁expos	-12.1761
▁cracks	-12.1774
▁ruled	-12.1774
stor	-12.1775
▁lara	-12.1775
▁merk	-12.1775
▁classmates	-12.1781
▁irons	-12.1782
▁raider	-12.1785
(!)	-12.1789
▁terri	-12.1789
▁awfulness	-12.1792
▁wrongly	-12.1796
▁sup	-12.1808
▁brew	-12.1811
vier	-12.1813
▁conflicted	-12.1815
▁pep	-12.1821
▁reels	-12.1825
▁nerds	-12.1826
▁mutants	-12.1827
▁excels	-12.1828
▁chronic	-12.1829
▁yuk	-12.1836
vic	-12.1836
▁experts	-12.1846
▁beam	-12.1847
▁butch	-12.1847
▁intelligently	-12.1852
▁spears	-12.1853
▁emil	-12.1854
▁pals	-12.1854
seeing	-12.1867
luck	-12.1868
conceived	-12.1884
jennifer	-12.1884
danny	-12.1887
direction	-12.1887
laura	-12.1888
▁jeep	-12.1896
▁burr	-12.1907
▁hmm	-12.1907
lake	-12.1912
▁10!	-12.1912
▁michel	-12.1917
▁capt	-12.1926
lize	-12.1926
▁cecil	-12.1929
▁arrogance	-12.1929
▁benjamin	-12.1929
▁capsule	-12.1929
▁carriage	-12.1929
▁ceremony	-12.1929
▁communism	-12.1929
▁concrete	-12.1929
▁deneuve	-12.1929
▁epitome	-12.1929
▁feinstone	-12.1929
▁gershwin	-12.1929
▁maturity	-12.1929
▁mcdowell	-12.1929
▁mishima	-12.1929
▁oriental	-12.1929
▁prostitution	-12.1929
▁saloon	-12.1929
▁schwarzenegger	-12.1929
▁superlative	-12.1929
▁switzerland	-12.1929
▁tierney	-12.1929
▁unappealing	-12.1929
▁vessel	-12.1929
▁smirk	-12.1929
▁galactica	-12.1929
▁randall	-12.1929
▁keitel	-12.1929
▁dodgy	-12.1929
▁salvation	-12.1929
▁swiss	-12.1929
▁grunt	-12.1929
▁censorship	-12.1929
▁marilyn	-12.1929
▁pornographic	-12.1929
▁supermarket	-12.1929
▁awry	-12.193
▁placing	-12.193
▁silva	-12.193
▁percent	-12.193
▁sunrise	-12.193
▁snowball	-12.193
▁yarn	-12.1931
▁scarce	-12.1931
▁admitted	-12.1931
▁brooke	-12.1932
▁undeveloped	-12.1932
▁imho	-12.1933
▁delta	-12.1933
▁adept	-12.1934
▁patty	-12.1934
edge	-12.1935
▁honorable	-12.1936
▁overshadowed	-12.1936
▁mobsters	-12.1937
▁napoleon	-12.1937
▁improvised	-12.1938
▁deborah	-12.1938
▁october	-12.1938
▁momma	-12.1939
▁2009	-12.1939
▁shanghai	-12.194
▁spawned	-12.194
▁derived	-12.194
▁penis	-12.1943
▁zach	-12.1943
org	-12.1945
▁lex	-12.1947
▁traps	-12.1948
▁500	-12.1948
▁perverted	-12.1948
▁invested	-12.1951
characters	-12.1954
▁grit	-12.1955
▁trait	-12.1957
▁revolting	-12.1957
▁inhabited	-12.1958
▁overused	-12.1963
▁encouraged	-12.1964
▁sil	-12.1964
▁watered	-12.1964
▁healing	-12.1965
▁morse	-12.1967
▁dope	-12.1968
▁burnt	-12.197
▁slaughtered	-12.1971
▁mala	-12.1973
▁csi	-12.1973
▁projection	-12.1974
▁colourful	-12.198
▁accidental	-12.1982
▁gaze	-12.1983
rix	-12.1988
▁barb	-12.1991
▁tricked	-12.1991
▁bark	-12.1994
aro	-12.1994
▁pigs	-12.1996
▁knees	-12.2004
▁ming	-12.2006
▁instincts	-12.201
▁mach	-12.2013
▁entertains	-12.2018
aked	-12.2021
▁dublin	-12.2021
▁structured	-12.2022
▁formal	-12.2023
▁neu	-12.2027
▁chops	-12.203
▁kidnaps	-12.2031
▁marrying	-12.2035
!!!!!!	-12.2036
▁crowded	-12.2041
lig	-12.2044
▁thereof	-12.2044
▁shemp	-12.2044
▁volumes	-12.2047
▁rene	-12.2047
▁cummings	-12.2053
pix	-12.2056
cile	-12.2067
▁bearing	-12.207
izz	-12.2078
▁undergo	-12.2082
▁socially	-12.2086
▁kindness	-12.2088
▁cass	-12.21
▁youngsters	-12.2101
▁revelations	-12.2104
nuff	-12.2105
joan	-12.2118
▁thro	-12.2119
▁hare	-12.2121
albeit	-12.2122
creature	-12.2122
literally	-12.2122
english	-12.2122
straight	-12.2122
arc	-12.2123
dumb	-12.2127
▁goth	-12.2132
haired	-12.2132
band	-12.2133
gay	-12.2135
▁harmon	-12.2136
▁desi	-12.2136
sleep	-12.2138
packed	-12.2142
▁skateboard	-12.2147
▁roar	-12.2151
▁prostitutes	-12.2152
▁preserve	-12.2152
▁oppos	-12.2153
appreciated	-12.2153
▁astronauts	-12.2157
trust	-12.2159
▁spook	-12.2159
▁maris	-12.2161
▁peer	-12.2162
▁tw	-12.2163
▁needle	-12.2164
casablanca	-12.2167
▁admirably	-12.2167
▁circuit	-12.2167
▁concentration	-12.2167
▁einstein	-12.2167
▁eleanor	-12.2167
▁happier	-12.2167
▁imitating	-12.2167
▁implement	-12.2167
▁innovation	-12.2167
▁leguizamo	-12.2167
▁librarian	-12.2167
▁lumber	-12.2167
▁miniature	-12.2167
▁oblivion	-12.2167
▁quibble	-12.2167
▁rabid	-12.2167
▁sophomoric	-12.2167
▁unfinished	-12.2167
▁applies	-12.2167
▁fairbanks	-12.2167
▁klaus	-12.2167
▁pryor	-12.2167
▁connecticut	-12.2167
▁dispatch	-12.2167
▁gossip	-12.2167
▁gypo	-12.2167
▁solving	-12.2167
▁longoria	-12.2167
▁goldsworthy	-12.2167
▁outlandish	-12.2167
▁rhys	-12.2167
▁bloodshed	-12.2167
▁lestat	-12.2167
▁penelope	-12.2167
▁quaint	-12.2167
▁elected	-12.2167
▁riddick	-12.2168
▁merry	-12.2168
▁theodore	-12.2168
▁kingsley	-12.2168
▁forehead	-12.2168
▁somber	-12.2168
▁aloof	-12.2168
▁gruff	-12.2168
▁cynicism	-12.2168
▁byrne	-12.2168
▁scarred	-12.2168
▁cheung	-12.2168
▁1955	-12.2169
▁resurrection	-12.2169
▁marvin	-12.2169
▁sweetheart	-12.2169
▁sfx	-12.2169
▁ufo	-12.2169
fighting	-12.2169
▁idealistic	-12.2169
▁slavery	-12.2169
▁burke	-12.2169
▁pawn	-12.2169
▁rewrite	-12.217
▁charley	-12.217
▁elicit	-12.2171
▁traitor	-12.2171
▁stargate	-12.2172
▁rko	-12.2172
▁surrealism	-12.2172
▁consumer	-12.2173
▁delirious	-12.2173
▁kolchak	-12.2175
▁pav	-12.2175
▁overweight	-12.2176
▁moderately	-12.2177
▁sabrina	-12.2177
▁deanna	-12.2177
▁logo	-12.2179
▁pokemon	-12.218
▁sensitivity	-12.218
▁silverman	-12.2181
▁dustin	-12.2181
▁avenger	-12.2182
▁shamelessly	-12.2183
▁policemen	-12.2184
▁lyrical	-12.2185
▁inherited	-12.2185
▁supremely	-12.2186
▁brass	-12.2186
▁bless	-12.2187
▁grease	-12.2187
▁homework	-12.2187
▁warped	-12.2189
▁masterson	-12.2189
▁drowning	-12.219
▁disk	-12.219
▁funky	-12.2191
▁virtue	-12.2191
▁punks	-12.2196
whom	-12.2203
▁laden	-12.2203
▁shawn	-12.2203
▁jerky	-12.2206
▁crushed	-12.2208
▁jerks	-12.2209
▁coco	-12.221
escent	-12.2213
(?)	-12.2215
▁stakes	-12.2217
▁spared	-12.222
▁penned	-12.2221
▁(200	-12.2223
owing	-12.2224
▁franc	-12.2228
▁advised	-12.2228
▁magically	-12.2228
train	-12.2238
-20	-12.2239
▁cheats	-12.2246
▁cursed	-12.2246
▁bynes	-12.2246
▁layer	-12.2255
marc	-12.226
▁dangerously	-12.2262
rap	-12.2267
store	-12.2268
▁rocked	-12.227
▁outset	-12.2278
▁sage	-12.2283
▁tread	-12.2283
...........	-12.2286
▁yul	-12.2287
▁rig	-12.2287
▁bites	-12.2288
▁listing	-12.2288
▁rug	-12.2295
▁hardships	-12.2299
▁quo	-12.2302
▁vil	-12.2306
apped	-12.2306
▁gush	-12.2315
psy	-12.2316
rope	-12.2316
ook	-12.2327
def	-12.2328
umm	-12.2335
north	-12.2335
▁gripe	-12.2338
▁noel	-12.2343
▁afro	-12.2344
misunderstanding	-12.235
▁mimic	-12.2359
▁custom	-12.2361
guard	-12.2364
reason	-12.2365
heaven	-12.2366
attack	-12.2366
henry	-12.2366
imagine	-12.2366
social	-12.2366
lewis	-12.2366
thus	-12.2367
johnny	-12.2367
saving	-12.2368
julie	-12.2368
honestly	-12.2368
decent	-12.2368
blade	-12.2369
nobody	-12.2369
nazi	-12.2377
▁amid	-12.2378
▁opponents	-12.2381
nard	-12.2383
beck	-12.2383
song	-12.2384
▁octopus	-12.2384
▁forrest	-12.2384
▁amir	-12.2384
greg	-12.2385
▁figur	-12.2386
soul	-12.2396
▁acclaim	-12.2397
▁mm	-12.24
either	-12.2404
themed	-12.2406
▁moan	-12.2408
▁sandwich	-12.2408
▁bonding	-12.2409
clusive	-12.241
▁achieving	-12.2411
▁bicycle	-12.2411
▁capshaw	-12.2411
▁confederate	-12.2411
▁desolate	-12.2411
▁enforcement	-12.2411
▁exaggeration	-12.2411
▁facility	-12.2411
▁gielgud	-12.2411
▁grenade	-12.2411
▁homicidal	-12.2411
▁identities	-12.2411
▁knack	-12.2411
▁liotta	-12.2411
▁november	-12.2411
▁patriarch	-12.2411
▁penalty	-12.2411
▁predicament	-12.2411
▁psychiatric	-12.2411
▁soylent	-12.2411
▁stalwart	-12.2411
▁tribulation	-12.2411
▁versatile	-12.2411
▁bauer	-12.2411
▁dyke	-12.2411
▁clarence	-12.2411
▁donovan	-12.2411
▁lukas	-12.2411
▁resign	-12.2411
▁shepard	-12.2411
▁plunge	-12.2411
.9/10	-12.2412
▁zhang	-12.2412
▁becky	-12.2412
▁perversion	-12.2412
▁annoyance	-12.2412
▁britney	-12.2412
▁tedium	-12.2412
▁hutton	-12.2412
▁skating	-12.2412
▁kilmer	-12.2412
▁robbing	-12.2412
▁digress	-12.2412
▁stubborn	-12.2412
▁kidnapper	-12.2412
▁continent	-12.2413
▁edison	-12.2413
▁cannibalism	-12.2413
▁grape	-12.2413
▁dragging	-12.2413
▁electricity	-12.2413
▁summon	-12.2413
▁jewelry	-12.2414
▁rapper	-12.2414
▁surpasses	-12.2414
▁carpet	-12.2414
▁choir	-12.2414
▁delay	-12.2415
▁haircut	-12.2415
▁standpoint	-12.2415
▁hairstyle	-12.2415
▁tomei	-12.2415
▁classified	-12.2416
▁midway	-12.2416
▁vulnerability	-12.2416
▁suggestive	-12.2418
▁consumed	-12.2418
▁colman	-12.2419
▁witless	-12.2419
▁atlantis	-12.242
▁uncredited	-12.242
▁wry	-12.242
▁contradiction	-12.242
▁philadelphia	-12.2421
▁stockwell	-12.2421
▁deck	-12.2421
▁elijah	-12.2422
▁whistle	-12.2422
▁jed	-12.2423
▁peggy	-12.2423
▁sammo	-12.2423
▁foe	-12.2424
▁allegedly	-12.2424
▁seinfeld	-12.2424
▁correctness	-12.2425
▁jovi	-12.2426
▁varying	-12.2426
▁misty	-12.2427
▁sammy	-12.2429
▁raptor	-12.2429
▁malcolm	-12.243
▁expresses	-12.243
?????	-12.2432
▁distinguished	-12.2434
▁clients	-12.2435
▁brandon	-12.2436
▁observed	-12.2437
▁transported	-12.2438
▁carrier	-12.2438
▁fairness	-12.244
▁novelist	-12.244
▁accuse	-12.2441
▁opponent	-12.2442
▁mow	-12.2444
garde	-12.2445
▁finishes	-12.2449
▁curl	-12.2453
▁rae	-12.2453
▁sacrificed	-12.2455
▁lawn	-12.2455
▁nam	-12.2461
▁disappearing	-12.2463
▁stem	-12.2463
▁shave	-12.2466
▁bl	-12.2468
assic	-12.247
▁hicks	-12.2473
▁artful	-12.2485
▁sgt	-12.2486
▁russ	-12.2488
▁allies	-12.2488
▁verne	-12.249
drug	-12.2494
▁metro	-12.2494
▁raping	-12.2496
uction	-12.2501
▁spectacularly	-12.2504
▁baddie	-12.2504
▁zip	-12.2505
▁participants	-12.2513
budding	-12.2516
▁shaped	-12.2524
neck	-12.2525
▁wink	-12.2529
▁250	-12.253
▁hairy	-12.2535
paris	-12.2542
▁tools	-12.2544
▁advances	-12.2552
mme	-12.2552
▁trusted	-12.2553
suit	-12.2554
▁struggled	-12.2554
given	-12.2558
▁warns	-12.2566
▁reside	-12.2569
▁denise	-12.2572
▁mont	-12.2574
▁files	-12.258
cue	-12.2581
▁awarded	-12.2582
mid	-12.2583
▁colored	-12.2585
▁shin	-12.2586
▁cleaner	-12.259
▁deco	-12.2593
important	-12.2613
▁documents	-12.2613
▁instruments	-12.2613
wrenching	-12.2615
beyond	-12.2616
romance	-12.2616
suspense	-12.2616
cid	-12.2616
dancing	-12.2617
▁matin	-12.2617
doctor	-12.2617
depend	-12.2618
jump	-12.2618
naked	-12.2619
plane	-12.262
help	-12.2622
▁slum	-12.2622
jason	-12.2622
▁kindly	-12.2622
crafted	-12.2624
listen	-12.2626
running	-12.2628
▁sis	-12.2628
▁tourists	-12.2628
queen	-12.2629
hence	-12.263
storm	-12.263
▁fleet	-12.263
▁numb	-12.2632
▁choke	-12.2638
won	-12.2641
job	-12.2642
keeper	-12.2642
▁persuade	-12.2646
▁divide	-12.2646
▁vamp	-12.2647
▁ei	-12.2652
ured	-12.2654
▁siege	-12.2659
▁submit	-12.2661
▁adversity	-12.2661
▁alejandro	-12.2661
▁ambiance	-12.2661
▁babysitter	-12.2661
▁berkeley	-12.2661
▁cheesiness	-12.2661
▁fleischer	-12.2661
▁glorified	-12.2661
▁greece	-12.2661
▁humiliating	-12.2661
▁insignificant	-12.2661
▁interspersed	-12.2661
▁intimacy	-12.2661
▁marijuana	-12.2661
▁millennium	-12.2661
▁playwright	-12.2661
▁screech	-12.2661
▁shudder	-12.2661
▁singapore	-12.2661
▁upstairs	-12.2661
▁wolves	-12.2661
▁fiennes	-12.2661
▁imperial	-12.2661
▁mathieu	-12.2661
▁notwithstanding	-12.2661
▁talbot	-12.2661
▁incessant	-12.2661
▁diploma	-12.2661
▁carlito	-12.2661
▁upbringing	-12.2661
▁demographic	-12.2661
▁rowlands	-12.2661
▁maltin	-12.2661
▁rosie	-12.2661
▁guidance	-12.2661
▁prehistoric	-12.2661
▁relish	-12.2661
▁macdonald	-12.2661
▁flounder	-12.2662
▁gustav	-12.2662
▁irresponsible	-12.2662
wight	-12.2662
.1/10	-12.2662
▁cedric	-12.2662
▁uncompromising	-12.2662
▁raving	-12.2662
▁jolly	-12.2662
▁guise	-12.2662
joy	-12.2662
▁ashton	-12.2663
▁dependent	-12.2663
▁labour	-12.2663
▁ostensibly	-12.2663
▁irresistible	-12.2663
▁adultery	-12.2664
▁nutty	-12.2664
▁duckling	-12.2665
▁recount	-12.2665
▁reduce	-12.2666
liner	-12.2667
▁conductor	-12.2667
▁speechless	-12.2667
▁underused	-12.2667
▁artistically	-12.2668
▁brides	-12.2668
▁mush	-12.2668
▁thereafter	-12.2669
▁subtitled	-12.2671
▁deeds	-12.2673
▁skate	-12.2673
▁gulliver	-12.2673
▁diesel	-12.2674
▁fighters	-12.2675
▁trump	-12.2675
▁shakespearean	-12.2676
▁hooks	-12.2676
▁haired	-12.2678
▁plead	-12.2678
▁fleeting	-12.2685
▁habits	-12.2686
▁socks	-12.2686
▁funds	-12.269
▁cain	-12.269
ended	-12.2691
▁campers	-12.2692
▁starlet	-12.2696
▁hunger	-12.2696
▁strangest	-12.2699
▁reported	-12.2699
▁passenger	-12.27
▁circumstance	-12.27
▁steaming	-12.2704
▁margo	-12.2704
▁absorbed	-12.2706
horn	-12.2709
ril	-12.2711
▁fold	-12.2712
▁montages	-12.2714
▁praying	-12.2714
▁plagued	-12.2721
▁meadows	-12.2726
▁fend	-12.2727
erie	-12.2727
▁manga	-12.2736
▁ridden	-12.2737
▁fling	-12.2744
▁lightly	-12.2745
ace	-12.2745
filmed	-12.2748
▁output	-12.2749
neal	-12.2753
waving	-12.2753
▁willard	-12.2754
near	-12.2759
▁goofs	-12.276
agon	-12.2765
▁lamb	-12.2768
▁timon	-12.2768
▁screamed	-12.2769
▁kier	-12.2773
▁paired	-12.278
weight	-12.2781
zero	-12.2782
▁cub	-12.2786
worn	-12.2791
▁yells	-12.2798
▁fee	-12.28
▁portions	-12.2805
▁loudly	-12.2808
kel	-12.2812
lev	-12.2814
▁demonstrat	-12.2817
▁stoic	-12.2822
▁hating	-12.2824
▁coincidences	-12.2828
▁yea	-12.2828
▁violently	-12.2837
err	-12.2841
blooded	-12.2847
marie	-12.2848
▁weary	-12.2849
lb	-12.2851
cule	-12.2852
▁refuge	-12.2859
▁talky	-12.2864
▁responds	-12.2867
▁replac	-12.287
technically	-12.2872
friday	-12.2872
barbara	-12.2872
extreme	-12.2872
heavy	-12.2872
female	-12.2872
romantic	-12.2872
between	-12.2872
dropping	-12.2872
wrong	-12.2872
battle	-12.2872
▁powerfully	-12.2873
general	-12.2873
south	-12.2873
holland	-12.2874
▁plea	-12.2886
▁chips	-12.2889
prison	-12.2889
▁narrate	-12.2902
▁diminish	-12.2903
▁tattoo	-12.2903
▁spec	-12.2908
ibly	-12.291
een	-12.2911
▁counsel	-12.2914
▁winston	-12.2916
▁keeper	-12.2916
▁stylistic	-12.2917
▁cigar	-12.2917
▁alienate	-12.2918
▁allegory	-12.2918
▁anatomy	-12.2918
▁anniversary	-12.2918
▁appalled	-12.2918
▁bankrupt	-12.2918
▁catastrophe	-12.2918
▁conference	-12.2918
▁daphne	-12.2918
▁estevez	-12.2918
▁fassbinder	-12.2918
▁gwyneth	-12.2918
▁haphazard	-12.2918
▁hasselhoff	-12.2918
▁histrionic	-12.2918
▁inadvertently	-12.2918
▁january	-12.2918
▁katherine	-12.2918
▁misplaced	-12.2918
▁monstrosity	-12.2918
▁muscular	-12.2918
▁necessity	-12.2918
▁platform	-12.2918
▁procedure	-12.2918
▁ravishing	-12.2918
▁repellent	-12.2918
▁roosevelt	-12.2918
▁smuggling	-12.2918
▁sophistication	-12.2918
▁stimulating	-12.2918
▁thirteen	-12.2918
▁wisconsin	-12.2918
▁wynorski	-12.2918
▁chandler	-12.2918
▁delusional	-12.2918
▁judith	-12.2918
▁peasant	-12.2918
▁astonished	-12.2918
▁retreat	-12.2918
▁slang	-12.2918
▁conjure	-12.2918
▁dassin	-12.2918
▁microphone	-12.2918
ibility	-12.2918
▁vienna	-12.2918
▁blazing	-12.2918
▁marital	-12.2918
▁stunk	-12.2918
▁mockery	-12.2918
▁lamarr	-12.2918
▁jolt	-12.2918
▁mythical	-12.2918
▁beaver	-12.2918
▁chong	-12.2918
▁unemployed	-12.2918
▁nineties	-12.2918
▁retirement	-12.2918
▁olsen	-12.2919
▁panties	-12.2919
▁grandeur	-12.2919
▁fiery	-12.2919
▁aerial	-12.2919
▁ironside	-12.2919
▁stitches	-12.2919
▁faux	-12.2919
▁tiring	-12.2919
▁alliance	-12.2919
▁lightweight	-12.2919
▁1933	-12.2919
▁mamet	-12.2919
▁interrogation	-12.2919
▁occurring	-12.2919
▁glee	-12.2919
▁vanilla	-12.292
▁1947	-12.292
▁requirement	-12.292
▁exude	-12.292
▁bombard	-12.292
▁bogus	-12.292
▁presidential	-12.2921
▁featurette	-12.2921
▁stepping	-12.2921
▁worldwide	-12.2921
▁ledger	-12.2921
▁counselor	-12.2922
▁gunshot	-12.2922
▁decoration	-12.2923
▁illuminated	-12.2923
▁slayer	-12.2923
▁paz	-12.2924
evaluat	-12.2924
▁barnes	-12.2925
▁wildlife	-12.2925
▁pathetically	-12.2927
▁hunky	-12.2928
fra	-12.2928
▁cocky	-12.293
▁continuously	-12.2931
▁platoon	-12.2931
▁steppe	-12.2932
▁rum	-12.2932
▁hackman	-12.2932
▁swan	-12.2936
▁beforehand	-12.2938
▁declared	-12.2942
▁largest	-12.2942
▁inventor	-12.2945
▁astonishingly	-12.2949
▁darkest	-12.2951
▁lingering	-12.2952
▁launched	-12.2952
▁amok	-12.2953
▁smallest	-12.2956
cold	-12.2961
▁missile	-12.2961
▁needlessly	-12.2962
▁sibling	-12.2963
▁reeve	-12.2963
▁entr	-12.2963
worker	-12.2967
▁premiered	-12.2968
▁chewing	-12.297
▁locks	-12.2975
▁badness	-12.2976
▁dc	-12.2978
player	-12.2979
digger	-12.2979
▁carly	-12.2979
▁frenchman	-12.2988
??)	-12.2991
▁ably	-12.2996
▁universally	-12.2996
fighter	-12.2998
.1.	-12.2998
▁snippets	-12.3007
▁deservedly	-12.3011
▁recap	-12.3016
▁lovingly	-12.3016
▁scarecrows	-12.3024
lom	-12.3026
▁organic	-12.3035
cade	-12.3035
▁graceful	-12.3038
▁fades	-12.3046
induced	-12.3047
▁hartman	-12.3061
▁shiver	-12.3067
▁fanatics	-12.3077
▁monument	-12.308
▁assert	-12.3085
▁harlin	-12.3086
▁dreamy	-12.3089
▁robe	-12.3091
▁schemes	-12.3094
▁limbs	-12.3095
bend	-12.31
▁muslims	-12.3101
▁conform	-12.3105
heroes	-12.3107
▁minimalist	-12.3112
▁airing	-12.3113
▁tee	-12.3119
▁mannered	-12.3122
isn	-12.3123
corp	-12.3126
ground	-12.3126
birth	-12.3133
citizen	-12.3135
corn	-12.3135
nightmare	-12.3135
vampire	-12.3135
husband	-12.3135
adult	-12.3135
season	-12.3136
weird	-12.3136
everybody	-12.3136
▁chapters	-12.3136
otherwise	-12.3136
buster	-12.3138
surprisingly	-12.3139
beast	-12.3139
▁freely	-12.315
▁bid	-12.3153
▁leaps	-12.3153
▁pri	-12.3154
bank	-12.3154
▁suggesting	-12.3155
stock	-12.3163
▁surpass	-12.3163
▁sham	-12.3164
berry	-12.3164
▁perceive	-12.3165
▁infect	-12.3166
▁wimp	-12.3174
▁acquire	-12.3174
loo	-12.3175
hope	-12.3175
▁thankful	-12.3175
▁respectful	-12.3178
conceivable	-12.3181
▁amnesia	-12.3181
▁anonymous	-12.3181
▁anxiety	-12.3181
▁appetite	-12.3181
▁bulgaria	-12.3181
▁cambodia	-12.3181
▁climate	-12.3181
▁competing	-12.3181
▁congratulations	-12.3181
▁constitute	-12.3181
▁debacle	-12.3181
▁distorted	-12.3181
▁dreyfuss	-12.3181
▁eloquent	-12.3181
▁elusive	-12.3181
▁englund	-12.3181
▁evocative	-12.3181
▁krueger	-12.3181
▁macbeth	-12.3181
▁maureen	-12.3181
▁mcdermott	-12.3181
▁mercifully	-12.3181
▁monstrous	-12.3181
▁patterson	-12.3181
▁pixar	-12.3181
▁pulse	-12.3181
▁raunchy	-12.3181
▁rodriguez	-12.3181
▁satisfactory	-12.3181
▁schtick	-12.3181
▁shrill	-12.3181
▁stereotyping	-12.3181
▁cbc	-12.3181
▁haggard	-12.3181
▁prologue	-12.3181
▁saddest	-12.3181
▁oprah	-12.3181
▁wreak	-12.3181
▁inexperienced	-12.3181
▁seduction	-12.3181
▁kazan	-12.3181
▁snapshot	-12.3181
▁chord	-12.3181
▁aniston	-12.3181
▁prue	-12.3181
▁thailand	-12.3181
▁tucker	-12.3181
▁blurred	-12.3181
▁brisk	-12.3182
▁irving	-12.3182
▁jenna	-12.3182
▁transferred	-12.3182
▁vader	-12.3183
▁rejection	-12.3183
▁dunst	-12.3183
pieces	-12.3183
▁uneasy	-12.3183
▁hiring	-12.3183
▁reincarnation	-12.3184
▁maniacal	-12.3185
▁rivalry	-12.3185
▁anita	-12.3186
▁reese	-12.3186
▁horde	-12.3186
▁duchovny	-12.3186
▁sacred	-12.3187
▁farewell	-12.3187
▁gambler	-12.3187
▁tenderness	-12.3188
wai	-12.3189
▁carroll	-12.3189
▁supportive	-12.3189
▁sixty	-12.319
▁liu	-12.319
▁geraldine	-12.3191
▁sadden	-12.3191
▁orthodox	-12.3191
▁exile	-12.3191
▁maurice	-12.3192
▁unleashed	-12.3192
▁android	-12.3192
▁congo	-12.3193
▁copper	-12.3195
▁skater	-12.3195
▁duh	-12.3197
▁blessed	-12.3197
ites	-12.3198
▁gill	-12.3198
▁zoo	-12.3198
▁cowardly	-12.32
▁riches	-12.32
▁observer	-12.32
▁recreation	-12.32
▁dieter	-12.3202
▁prof	-12.3202
▁stain	-12.3203
▁blessing	-12.3204
▁punished	-12.3205
▁judd	-12.3205
▁bleeding	-12.3205
▁interpreted	-12.3207
plex	-12.321
▁tagline	-12.321
▁nuance	-12.3217
▁waltz	-12.3223
▁instrument	-12.3229
▁muted	-12.323
▁butchered	-12.3231
▁jared	-12.3233
discovered	-12.3233
warming	-12.3236
▁cosmo	-12.3236
.4.	-12.324
lene	-12.3242
▁representing	-12.3245
▁pia	-12.3245
▁shade	-12.3245
boggling	-12.3247
numbingly	-12.3249
▁ott	-12.3252
▁tilly	-12.3253
▁kittens	-12.3261
park	-12.3266
▁quirks	-12.3267
▁mash	-12.3269
want	-12.3281
87	-12.3283
▁nag	-12.3283
▁corridors	-12.3285
▁connor	-12.3286
▁monte	-12.3291
media	-12.3299
▁incomplete	-12.3301
▁sheet	-12.3304
89	-12.3305
▁poop	-12.3307
▁overact	-12.3308
▁reeks	-12.3309
flu	-12.3321
▁traveled	-12.3324
▁petro	-12.3325
▁swat	-12.3343
▁raft	-12.3348
01	-12.3348
▁dreaming	-12.3351
rather	-12.3357
47	-12.3358
▁hut	-12.336
bull	-12.3362
vie	-12.3363
▁forbid	-12.3364
▁daft	-12.3371
▁practic	-12.3371
hunt	-12.3373
jar	-12.3378
▁insects	-12.3387
voice	-12.3391
▁monks	-12.3392
ault	-12.3397
inspired	-12.3403
dolph	-12.3405
oriented	-12.3405
ease	-12.3405
▁missiles	-12.3405
focus	-12.3406
patrick	-12.3406
boyfriend	-12.3408
harry	-12.3408
few	-12.3411
victor	-12.3414
humor	-12.3414
left	-12.3415
clock	-12.3416
▁disturb	-12.3416
million	-12.3416
▁customs	-12.3419
▁contend	-12.3421
spot	-12.3425
▁projected	-12.3429
▁exceed	-12.3437
animal	-12.3447
aime	-12.3448
▁crypt	-12.3451
extraordinarily	-12.3451
▁agatha	-12.3451
▁artifact	-12.3451
▁aykroyd	-12.3451
▁bloodbath	-12.3451
▁chloe	-12.3451
▁compilation	-12.3451
▁contemplate	-12.3451
▁dakota	-12.3451
▁eclipse	-12.3451
▁enthralling	-12.3451
▁finlay	-12.3451
▁fitzgerald	-12.3451
▁foreboding	-12.3451
▁hartnett	-12.3451
▁infidelity	-12.3451
▁linnea	-12.3451
▁ounce	-12.3451
▁outburst	-12.3451
▁prolific	-12.3451
▁quantum	-12.3451
▁radiation	-12.3451
▁repertoire	-12.3451
▁seclud	-12.3451
▁signature	-12.3451
▁turgid	-12.3451
▁wilkinson	-12.3451
▁wrinkle	-12.3451
▁assortment	-12.3451
▁formidable	-12.3451
▁floyd	-12.3451
▁loony	-12.3451
▁mandatory	-12.3451
▁proverb	-12.3451
▁bardem	-12.3451
▁myriad	-12.3451
▁damsel	-12.3451
▁yacht	-12.3451
▁grocer	-12.3451
▁rumble	-12.3451
▁sniff	-12.3451
▁predictability	-12.3452
▁calvin	-12.3452
wield	-12.3452
▁shylock	-12.3452
▁rudd	-12.3452
▁0/10	-12.3452
▁blaise	-12.3452
▁europa	-12.3452
▁patriotism	-12.3452
▁uninspiring	-12.3452
▁alluring	-12.3452
▁dirk	-12.3452
▁duties	-12.3452
▁breakthrough	-12.3452
▁bernie	-12.3453
▁bergen	-12.3453
▁freddie	-12.3453
▁crotch	-12.3453
▁palette	-12.3453
▁repetition	-12.3453
▁loot	-12.3453
▁guru	-12.3453
▁subtleties	-12.3453
▁unlucky	-12.3453
▁fourteen	-12.3454
▁emergency	-12.3454
▁demme	-12.3455
▁cellar	-12.3456
▁hindu	-12.3457
▁uzumaki	-12.3459
▁heartily	-12.346
▁luther	-12.346
▁pepe	-12.3462
▁cliffhanger	-12.3462
▁wendigo	-12.3462
▁exhausted	-12.3462
aku	-12.3464
moon	-12.3464
▁harper	-12.3465
▁counterparts	-12.3466
mash	-12.3466
▁permanently	-12.3467
▁overtly	-12.3467
▁stretches	-12.3467
[...]
